<|pad|>	0
<|unk|>	0
<|bos|>	0
<|eos|>	0
<|im_start|>	0
<|im_end|>	0
<|system|>	0
<|user|>	0
<|assistant|>	0
▁t	-0
he	-1
▁a	-2
in	-3
▁the	-4
er	-5
on	-6
▁,	-7
re	-8
▁s	-9
ed	-10
▁o	-11
▁w	-12
nd	-13
at	-14
▁.	-15
or	-16
it	-17
▁c	-18
en	-19
▁f	-20
is	-21
es	-22
ar	-23
▁of	-24
▁b	-25
an	-26
▁in	-27
al	-28
ing	-29
▁p	-30
▁and	-31
as	-32
▁to	-33
ro	-34
ic	-35
▁m	-36
▁d	-37
▁h	-38
ion	-39
le	-40
ou	-41
▁T	-42
▁re	-43
▁=	-44
▁"	-45
▁A	-46
▁S	-47
ent	-48
il	-49
▁th	-50
▁1	-51
st	-52
▁C	-53
el	-54
om	-55
▁l	-56
am	-57
▁e	-58
▁n	-59
▁@	-60
ad	-61
ac	-62
▁was	-63
▁M	-64
ur	-65
▁The	-66
ec	-67
▁on	-68
ly	-69
▁B	-70
▁I	-71
▁g	-72
▁'	-73
et	-74
ol	-75
id	-76
iv	-77
im	-78
▁for	-79
ir	-80
-@	-81
▁@-@	-82
ig	-83
ot	-84
ter	-85
▁as	-86
▁H	-87
us	-88
ow	-89
▁st	-90
ut	-91
ith	-92
ay	-93
▁2	-94
▁P	-95
ation	-96
ver	-97
▁be	-98
her	-99
▁that	-100
▁with	-101
▁R	-102
ce	-103
th	-104
▁D	-105
▁is	-106
un	-107
em	-108
▁F	-109
▁wh	-110
ul	-111
▁by	-112
▁al	-113
ch	-114
▁)	-115
▁(	-116
▁W	-117
▁con	-118
ra	-119
▁G	-120
os	-121
▁L	-122
▁N	-123
▁at	-124
ers	-125
ct	-126
▁it	-127
▁19	-128
rom	-129
and	-130
▁an	-131
um	-132
est	-133
▁J	-134
ag	-135
▁he	-136
00	-137
ist	-138
ain	-139
od	-140
av	-141
ri	-142
▁E	-143
▁O	-144
▁from	-145
▁com	-146
▁his	-147
op	-148
▁pro	-149
res	-150
ies	-151
if	-152
▁v	-153
ort	-154
ere	-155
ill	-156
ld	-157
▁de	-158
pp	-159
▁su	-160
ore	-161
▁In	-162
▁r	-163
▁se	-164
▁were	-165
ew	-166
ong	-167
igh	-168
ard	-169
ate	-170
all	-171
art	-172
ak	-173
ich	-174
▁ch	-175
▁or	-176
ab	-177
ant	-178
ud	-179
oc	-180
ber	-181
▁ex	-182
gh	-183
ity	-184
ated	-185
pt	-186
ess	-187
ear	-188
▁K	-189
▁pl	-190
ame	-191
qu	-192
ive	-193
rou	-194
▁are	-195
▁sh	-196
▁k	-197
ack	-198
ect	-199
▁U	-200
▁had	-201
se	-202
▁which	-203
red	-204
ov	-205
▁St	-206
ast	-207
▁sp	-208
ian	-209
▁y	-210
ment	-211
▁le	-212
▁not	-213
ge	-214
ord	-215
rit	-216
ip	-217
ine	-218
ell	-219
ally	-220
our	-221
ost	-222
ight	-223
ther	-224
ap	-225
▁u	-226
ish	-227
▁Ch	-228
oun	-229
ia	-230
▁3	-231
ave	-232
ary	-233
ust	-234
og	-235
▁200	-236
▁un	-237
ous	-238
irst	-239
▁V	-240
cc	-241
▁inc	-242
▁;	-243
▁comp	-244
ru	-245
ions	-246
▁their	-247
▁but	-248
ide	-249
ure	-250
so	-251
▁cont	-252
▁int	-253
fter	-254
ical	-255
ial	-256
▁ar	-257
▁first	-258
ould	-259
▁its	-260
hed	-261
▁–	-262
▁whe	-263
wo	-264
out	-265
ub	-266
▁20	-267
ff	-268
▁:	-269
ue	-270
▁her	-271
own	-272
ok	-273
▁also	-274
▁cl	-275
per	-276
ign	-277
ater	-278
ran	-279
orm	-280
ie	-281
ome	-282
ass	-283
ork	-284
ire	-285
end	-286
▁res	-287
▁ab	-288
▁ad	-289
▁us	-290
ry	-291
▁rec	-292
▁have	-293
age	-294
▁He	-295
▁4	-296
▁ro	-297
mer	-298
▁one	-299
ond	-300
low	-301
▁has	-302
▁Th	-303
du	-304
▁5	-305
▁per	-306
▁been	-307
ime	-308
▁two	-309
ence	-310
land	-311
▁18	-312
.@	-313
▁@.@	-314
ult	-315
ree	-316
ough	-317
ile	-318
▁who	-319
▁Al	-320
▁sc	-321
uring	-322
pl	-323
ory	-324
ition	-325
ric	-326
ations	-327
▁dis	-328
▁this	-329
▁bec	-330
▁app	-331
iz	-332
▁It	-333
are	-334
ach	-335
lud	-336
ade	-337
▁play	-338
▁j	-339
▁man	-340
act	-341
ely	-342
▁part	-343
▁des	-344
▁ag	-345
▁they	-346
▁year	-347
ount	-348
▁201	-349
▁over	-350
▁other	-351
ound	-352
▁after	-353
ib	-354
over	-355
▁ser	-356
▁en	-357
▁off	-358
▁im	-359
ction	-360
▁Y	-361
ke	-362
ite	-363
,@	-364
▁@,@	-365
te	-366
urn	-367
▁includ	-368
ress	-369
ance	-370
ang	-371
▁att	-372
ice	-373
ace	-374
ark	-375
▁out	-376
wn	-377
ph	-378
ember	-379
▁pre	-380
▁up	-381
ens	-382
man	-383
▁ev	-384
▁time	-385
nder	-386
rough	-387
ced	-388
▁fin	-389
▁into	-390
one	-391
port	-392
round	-393
we	-394
ren	-395
les	-396
int	-397
▁On	-398
vel	-399
▁comm	-400
▁she	-401
ason	-402
amp	-403
▁te	-404
▁would	-405
ward	-406
▁more	-407
▁6	-408
ied	-409
ose	-410
rib	-411
▁Un	-412
▁all	-413
ings	-414
tern	-415
ces	-416
able	-417
▁we	-418
ited	-419
ever	-420
ents	-421
▁him	-422
ased	-423
ors	-424
oy	-425
ood	-426
▁cent	-427
ix	-428
ase	-429
ild	-430
▁An	-431
▁7	-432
▁work	-433
ates	-434
ious	-435
ath	-436
▁po	-437
rop	-438
old	-439
als	-440
iss	-441
ey	-442
ict	-443
▁fe	-444
▁them	-445
gan	-446
▁sec	-447
▁bet	-448
▁when	-449
▁song	-450
▁rem	-451
ep	-452
form	-453
ail	-454
fer	-455
▁ear	-456
ubl	-457
aw	-458
▁kn	-459
ake	-460
aus	-461
▁most	-462
▁cons	-463
▁during	-464
▁As	-465
orth	-466
▁new	-467
ered	-468
ilm	-469
ved	-470
att	-471
▁only	-472
▁9	-473
▁dec	-474
▁8	-475
ick	-476
▁game	-477
ons	-478
ug	-479
▁tr	-480
ft	-481
oth	-482
ook	-483
▁Mar	-484
reat	-485
way	-486
▁can	-487
ollow	-488
outh	-489
ween	-490
▁En	-491
▁199	-492
ters	-493
▁rel	-494
ind	-495
▁about	-496
▁season	-497
▁again	-498
ral	-499
▁three	-500
ational	-501
▁under	-502
ular	-503
▁me	-504
▁than	-505
▁Com	-506
▁Ar	-507
hip	-508
ob	-509
▁ne	-510
▁between	-511
▁fl	-512
hn	-513
ve	-514
▁char	-515
▁col	-516
▁record	-517
iew	-518
ron	-519
fore	-520
▁through	-521
ision	-522
orn	-523
▁00	-524
ock	-525
▁ver	-526
▁num	-527
▁later	-528
▁end	-529
olog	-530
ames	-531
▁pos	-532
▁writ	-533
▁produ	-534
▁while	-535
▁act	-536
▁rele	-537
▁film	-538
ished	-539
▁pr	-540
ans	-541
▁reg	-542
▁form	-543
▁ass	-544
▁Se	-545
ury	-546
ted	-547
ts	-548
▁made	-549
▁sub	-550
▁pe	-551
▁so	-552
orld	-553
▁ret	-554
▁New	-555
▁spec	-556
▁acc	-557
▁qu	-558
▁where	-559
ener	-560
▁mov	-561
hes	-562
meric	-563
▁Le	-564
ating	-565
▁inter	-566
▁Americ	-567
▁ra	-568
▁some	-569
▁co	-570
▁lar	-571
▁bu	-572
▁def	-573
bum	-574
▁ac	-575
▁mus	-576
▁follow	-577
▁At	-578
ins	-579
ived	-580
ific	-581
ual	-582
▁am	-583
▁such	-584
▁second	-585
ike	-586
▁four	-587
▁ind	-588
ann	-589
hen	-590
▁used	-591
▁Re	-592
ics	-593
lect	-594
▁day	-595
iel	-596
ily	-597
▁This	-598
▁0	-599
▁publ	-600
▁Jo	-601
▁call	-602
ll	-603
▁album	-604
▁000	-605
rans	-606
▁do	-607
any	-608
▁before	-609
ros	-610
▁Sh	-611
▁sy	-612
aid	-613
▁Eng	-614
▁being	-615
▁10	-616
uc	-617
▁ep	-618
▁supp	-619
▁there	-620
▁years	-621
ars	-622
owever	-623
▁ent	-624
ife	-625
▁high	-626
▁found	-627
ird	-628
▁no	-629
▁set	-630
ines	-631
iver	-632
io	-633
other	-634
ject	-635
▁sur	-636
aj	-637
ten	-638
▁tra	-639
▁12	-640
ised	-641
ities	-642
velop	-643
ale	-644
▁bl	-645
▁series	-646
▁loc	-647
▁number	-648
▁pres	-649
ane	-650
ause	-651
ode	-652
ek	-653
ton	-654
▁Sc	-655
ier	-656
ise	-657
▁sever	-658
ince	-659
▁both	-660
ank	-661
row	-662
irect	-663
son	-664
▁Brit	-665
▁then	-666
iet	-667
▁16	-668
▁epis	-669
▁including	-670
its	-671
igin	-672
▁/	-673
pr	-674
▁against	-675
▁well	-676
▁became	-677
▁exp	-678
▁known	-679
▁trans	-680
▁charac	-681
▁—	-682
ram	-683
▁add	-684
▁back	-685
▁go	-686
▁pop	-687
urch	-688
▁desc	-689
ield	-690
▁sing	-691
▁perform	-692
ained	-693
ident	-694
▁rece	-695
▁em	-696
ert	-697
ures	-698
▁dep	-699
▁inv	-700
▁198	-701
air	-702
ern	-703
ather	-704
▁Z	-705
ful	-706
▁mon	-707
▁many	-708
▁main	-709
▁stud	-710
▁long	-711
inn	-712
though	-713
up	-714
ool	-715
▁United	-716
led	-717
ement	-718
▁15	-719
ower	-720
▁John	-721
▁op	-722
▁11	-723
ined	-724
▁met	-725
ober	-726
ley	-727
▁17	-728
▁century	-729
▁team	-730
▁est	-731
▁After	-732
yl	-733
▁min	-734
uch	-735
ute	-736
▁develop	-737
▁She	-738
iam	-739
▁show	-740
elf	-741
▁rep	-742
▁conc	-743
ative	-744
▁cre	-745
overn	-746
ared	-747
▁194	-748
▁origin	-749
▁sm	-750
ivers	-751
az	-752
▁lead	-753
▁several	-754
ah	-755
▁ob	-756
▁rev	-757
▁mill	-758
erm	-759
ually	-760
oot	-761
▁began	-762
▁196	-763
ired	-764
▁dif	-765
▁contin	-766
▁sign	-767
ik	-768
▁Ind	-769
ments	-770
ized	-771
▁197	-772
▁direct	-773
au	-774
ross	-775
▁ext	-776
emb	-777
der	-778
▁pol	-779
▁may	-780
apt	-781
els	-782
▁Wh	-783
▁comple	-784
▁art	-785
▁Br	-786
▁Is	-787
une	-788
til	-789
▁crit	-790
▁hist	-791
▁early	-792
▁could	-793
▁Con	-794
▁did	-795
▁bel	-796
▁called	-797
ued	-798
▁near	-799
▁episode	-800
yp	-801
▁describ	-802
imes	-803
roup	-804
▁bro	-805
ople	-806
▁run	-807
▁down	-808
aking	-809
▁disc	-810
▁along	-811
ccess	-812
▁May	-813
▁feat	-814
▁inst	-815
▁American	-816
▁said	-817
▁dist	-818
▁imp	-819
▁inf	-820
ink	-821
▁ins	-822
ty	-823
▁mil	-824
▁these	-825
enn	-826
▁Ger	-827
ium	-828
gest	-829
ven	-830
▁Bl	-831
▁Aust	-832
▁resp	-833
ull	-834
ruct	-835
ured	-836
▁though	-837
ove	-838
▁ship	-839
▁oper	-840
▁British	-841
▁prev	-842
▁until	-843
itt	-844
amed	-845
cept	-846
▁car	-847
▁start	-848
▁city	-849
▁gener	-850
▁same	-851
ains	-852
▁War	-853
ists	-854
ided	-855
ially	-856
▁released	-857
▁land	-858
ism	-859
▁Car	-860
▁any	-861
▁own	-862
▁war	-863
▁prov	-864
▁return	-865
▁air	-866
▁They	-867
xt	-868
erson	-869
oman	-870
▁music	-871
▁km	-872
ajor	-873
▁design	-874
▁Pl	-875
ible	-876
osed	-877
▁sim	-878
▁const	-879
▁appear	-880
▁million	-881
▁because	-882
ash	-883
▁fam	-884
▁mat	-885
▁use	-886
▁area	-887
▁13	-888
▁Aug	-889
▁Chr	-890
▁August	-891
▁ph	-892
▁occ	-893
▁open	-894
▁like	-895
ony	-896
▁success	-897
ole	-898
ouse	-899
erv	-900
▁count	-901
oss	-902
▁pass	-903
▁eff	-904
▁people	-905
my	-906
chool	-907
und	-908
▁Sp	-909
stem	-910
▁Cl	-911
▁offic	-912
ets	-913
uth	-914
▁six	-915
ange	-916
ues	-917
▁195	-918
▁support	-919
▁around	-920
▁small	-921
▁Col	-922
▁Sept	-923
▁However	-924
▁dam	-925
▁%	-926
▁adv	-927
▁mod	-928
▁Ju	-929
▁ele	-930
▁north	-931
ales	-932
▁head	-933
ient	-934
▁group	-935
▁govern	-936
raph	-937
▁character	-938
▁br	-939
▁gr	-940
▁ed	-941
▁each	-942
▁point	-943
▁September	-944
▁Ad	-945
wards	-946
▁consid	-947
ution	-948
▁De	-949
▁German	-950
▁following	-951
▁World	-952
▁life	-953
▁gu	-954
▁Comm	-955
▁All	-956
▁Austral	-957
anc	-958
▁ann	-959
▁contro	-960
ural	-961
▁var	-962
▁five	-963
ys	-964
▁US	-965
▁Her	-966
▁attack	-967
ged	-968
▁193	-969
ording	-970
▁result	-971
▁will	-972
ina	-973
ck	-974
▁Q	-975
▁ever	-976
▁Eu	-977
▁191	-978
▁Pro	-979
▁large	-980
▁II	-981
▁Me	-982
lish	-983
▁North	-984
ling	-985
▁book	-986
▁report	-987
ont	-988
ague	-989
▁Fran	-990
ble	-991
▁For	-992
ox	-993
aced	-994
hel	-995
▁June	-996
▁tit	-997
ended	-998
dom	-999
ilt	-1000
ives	-1001
▁14	-1002
ats	-1003
▁prom	-1004
eb	-1005
med	-1006
▁week	-1007
ately	-1008
aving	-1009
ored	-1010
▁str	-1011
▁Jan	-1012
▁since	-1013
▁States	-1014
▁final	-1015
▁major	-1016
ax	-1017
▁south	-1018
▁received	-1019
▁South	-1020
ivision	-1021
▁Gu	-1022
▁name	-1023
▁partic	-1024
ery	-1025
▁hel	-1026
ology	-1027
ption	-1028
▁Christ	-1029
▁Oct	-1030
▁care	-1031
▁public	-1032
..	-1033
▁rest	-1034
▁system	-1035
ected	-1036
▁Be	-1037
ility	-1038
ting	-1039
▁King	-1040
▁state	-1041
▁batt	-1042
ae	-1043
▁what	-1044
ages	-1045
uary	-1046
rand	-1047
▁last	-1048
▁described	-1049
▁October	-1050
▁line	-1051
▁class	-1052
▁$	-1053
▁...	-1054
▁det	-1055
raft	-1056
iving	-1057
▁Nov	-1058
▁played	-1059
▁prot	-1060
▁incre	-1061
aur	-1062
ropical	-1063
▁mar	-1064
▁now	-1065
ified	-1066
▁took	-1067
aim	-1068
▁Par	-1069
ional	-1070
get	-1071
ants	-1072
rote	-1073
ody	-1074
▁[	-1075
▁]	-1076
ively	-1077
▁York	-1078
▁build	-1079
▁world	-1080
▁Dec	-1081
▁late	-1082
yc	-1083
▁25	-1084
▁July	-1085
▁wrote	-1086
empt	-1087
ball	-1088
by	-1089
esp	-1090
▁Europ	-1091
ret	-1092
▁won	-1093
app	-1094
ideo	-1095
▁species	-1096
sion	-1097
ians	-1098
▁child	-1099
omet	-1100
iod	-1101
▁Can	-1102
▁conf	-1103
▁much	-1104
▁port	-1105
▁During	-1106
▁serv	-1107
▁camp	-1108
ection	-1109
▁ref	-1110
ech	-1111
▁due	-1112
▁short	-1113
arn	-1114
▁allow	-1115
▁single	-1116
pril	-1117
▁April	-1118
▁differ	-1119
▁just	-1120
▁death	-1121
ically	-1122
ract	-1123
▁star	-1124
▁sl	-1125
▁gun	-1126
ission	-1127
omin	-1128
▁Mc	-1129
ital	-1130
▁And	-1131
▁another	-1132
▁included	-1133
▁Mus	-1134
▁poss	-1135
ai	-1136
▁old	-1137
▁tri	-1138
ham	-1139
▁Ge	-1140
▁storm	-1141
▁vis	-1142
▁January	-1143
▁30	-1144
▁even	-1145
▁left	-1146
▁list	-1147
▁par	-1148
▁within	-1149
▁England	-1150
ple	-1151
▁prog	-1152
▁appro	-1153
ger	-1154
ops	-1155
itions	-1156
▁named	-1157
▁based	-1158
▁estab	-1159
inc	-1160
▁if	-1161
▁although	-1162
▁attempt	-1163
▁top	-1164
ilar	-1165
▁very	-1166
▁track	-1167
▁belie	-1168
ards	-1169
▁bre	-1170
▁third	-1171
▁hum	-1172
▁March	-1173
▁water	-1174
ene	-1175
▁games	-1176
▁organ	-1177
orp	-1178
ched	-1179
▁beg	-1180
ently	-1181
▁power	-1182
▁event	-1183
▁family	-1184
▁previous	-1185
▁school	-1186
ms	-1187
urric	-1188
▁best	-1189
ulation	-1190
▁November	-1191
ances	-1192
▁period	-1193
▁review	-1194
▁His	-1195
▁way	-1196
▁men	-1197
aster	-1198
▁expl	-1199
▁home	-1200
▁Europe	-1201
que	-1202
▁fur	-1203
▁government	-1204
▁typ	-1205
▁By	-1206
▁Ph	-1207
▁192	-1208
ience	-1209
▁turn	-1210
▁December	-1211
let	-1212
▁cap	-1213
ature	-1214
▁those	-1215
▁hand	-1216
avy	-1217
▁There	-1218
▁place	-1219
ached	-1220
▁med	-1221
hest	-1222
▁City	-1223
▁story	-1224
aged	-1225
oint	-1226
▁built	-1227
amb	-1228
eder	-1229
▁great	-1230
▁dr	-1231
ense	-1232
ences	-1233
▁person	-1234
iven	-1235
▁command	-1236
▁100	-1237
▁kill	-1238
oci	-1239
▁Fl	-1240
▁When	-1241
▁month	-1242
elt	-1243
itary	-1244
▁sent	-1245
▁opp	-1246
▁make	-1247
▁original	-1248
iversity	-1249
oad	-1250
▁hal	-1251
▁requ	-1252
ves	-1253
▁Pr	-1254
ides	-1255
▁eng	-1256
▁National	-1257
gy	-1258
▁2009	-1259
ention	-1260
▁Or	-1261
ness	-1262
▁2010	-1263
▁auth	-1264
▁video	-1265
▁2008	-1266
bs	-1267
▁ant	-1268
ison	-1269
▁dem	-1270
▁sug	-1271
▁mark	-1272
ruction	-1273
akes	-1274
▁present	-1275
line	-1276
▁leg	-1277
▁club	-1278
▁Man	-1279
rench	-1280
▁River	-1281
ival	-1282
▁view	-1283
▁Bro	-1284
riend	-1285
oard	-1286
▁repl	-1287
ograph	-1288
▁capt	-1289
alk	-1290
▁still	-1291
▁local	-1292
▁moved	-1293
▁stand	-1294
eng	-1295
▁led	-1296
▁role	-1297
ott	-1298
aining	-1299
ler	-1300
aken	-1301
▁came	-1302
▁term	-1303
▁iss	-1304
▁dest	-1305
ung	-1306
ories	-1307
idge	-1308
side	-1309
mp	-1310
▁dra	-1311
▁often	-1312
▁common	-1313
urricane	-1314
▁history	-1315
▁addition	-1316
▁caus	-1317
lev	-1318
sh	-1319
▁Comp	-1320
atter	-1321
▁No	-1322
▁trad	-1323
rew	-1324
▁few	-1325
▁We	-1326
▁Char	-1327
▁suggest	-1328
lu	-1329
▁Ab	-1330
read	-1331
ister	-1332
▁2007	-1333
▁next	-1334
▁effect	-1335
▁considered	-1336
▁One	-1337
▁bas	-1338
▁deb	-1339
▁player	-1340
ior	-1341
▁mid	-1342
▁cour	-1343
astern	-1344
▁Tr	-1345
▁help	-1346
▁English	-1347
ead	-1348
▁exper	-1349
uted	-1350
▁French	-1351
▁career	-1352
▁side	-1353
▁similar	-1354
▁recorded	-1355
ays	-1356
▁Batt	-1357
▁right	-1358
▁X	-1359
▁win	-1360
▁init	-1361
▁import	-1362
▁Acc	-1363
▁real	-1364
self	-1365
▁Rec	-1366
▁claim	-1367
▁arch	-1368
▁cover	-1369
▁company	-1370
be	-1371
ining	-1372
▁town	-1373
▁published	-1374
▁sold	-1375
▁continued	-1376
▁exc	-1377
▁refer	-1378
▁wind	-1379
▁different	-1380
▁you	-1381
▁take	-1382
▁without	-1383
ternational	-1384
▁songs	-1385
▁With	-1386
yn	-1387
▁Per	-1388
▁tot	-1389
▁Port	-1390
▁road	-1391
▁21	-1392
▁polit	-1393
▁former	-1394
▁tw	-1395
▁Bar	-1396
▁tem	-1397
▁held	-1398
▁Te	-1399
ches	-1400
▁memb	-1401
▁among	-1402
▁level	-1403
▁el	-1404
▁Will	-1405
ning	-1406
▁mag	-1407
▁field	-1408
par	-1409
▁elect	-1410
ner	-1411
iment	-1412
▁av	-1413
uss	-1414
itar	-1415
▁del	-1416
▁prop	-1417
inning	-1418
▁written	-1419
iter	-1420
resent	-1421
▁every	-1422
▁Am	-1423
▁State	-1424
estern	-1425
▁23	-1426
▁Ear	-1427
▁half	-1428
▁commun	-1429
lear	-1430
yle	-1431
ampions	-1432
▁Division	-1433
▁2011	-1434
▁release	-1435
ried	-1436
▁further	-1437
ots	-1438
▁become	-1439
▁2006	-1440
▁west	-1441
ensive	-1442
▁According	-1443
enc	-1444
▁cr	-1445
rodu	-1446
▁church	-1447
▁strong	-1448
▁Although	-1449
▁days	-1450
▁fore	-1451
▁however	-1452
roy	-1453
▁find	-1454
▁Canad	-1455
ices	-1456
▁cur	-1457
▁east	-1458
ising	-1459
▁Count	-1460
▁version	-1461
augh	-1462
▁beh	-1463
▁spe	-1464
▁foot	-1465
▁particular	-1466
ering	-1467
▁&	-1468
ize	-1469
▁my	-1470
ebru	-1471
▁low	-1472
▁Church	-1473
▁prof	-1474
▁Gener	-1475
▁title	-1476
▁compet	-1477
▁position	-1478
▁24	-1479
▁West	-1480
▁military	-1481
▁conv	-1482
▁Roman	-1483
▁author	-1484
▁22	-1485
▁26	-1486
▁appe	-1487
reen	-1488
▁order	-1489
▁League	-1490
outher	-1491
ront	-1492
▁sol	-1493
ittle	-1494
outhern	-1495
▁control	-1496
aces	-1497
▁Song	-1498
▁times	-1499
▁Af	-1500
▁band	-1501
▁Febru	-1502
▁February	-1503
pped	-1504
▁fre	-1505
▁less	-1506
ylan	-1507
▁Geor	-1508
▁defe	-1509
▁gave	-1510
▁vict	-1511
▁project	-1512
osp	-1513
▁Ass	-1514
▁!	-1515
▁Dylan	-1516
▁chang	-1517
▁members	-1518
▁reported	-1519
▁nort	-1520
rick	-1521
▁Park	-1522
▁nov	-1523
▁produced	-1524
▁stat	-1525
▁total	-1526
levision	-1527
arm	-1528
isc	-1529
eter	-1530
hern	-1531
▁2012	-1532
▁Old	-1533
aying	-1534
iety	-1535
▁arr	-1536
▁cult	-1537
▁popular	-1538
esc	-1539
oung	-1540
▁ter	-1541
ailed	-1542
▁fire	-1543
▁production	-1544
urs	-1545
apan	-1546
▁obs	-1547
hem	-1548
▁28	-1549
▁Pol	-1550
▁Sim	-1551
▁tropical	-1552
ression	-1553
▁post	-1554
▁Ste	-1555
▁critic	-1556
▁forces	-1557
▁Ha	-1558
ford	-1559
▁Japan	-1560
▁children	-1561
▁histor	-1562
ush	-1563
▁Ed	-1564
▁pat	-1565
▁having	-1566
▁include	-1567
ald	-1568
echn	-1569
ours	-1570
ring	-1571
▁surv	-1572
▁influ	-1573
▁invol	-1574
alion	-1575
ne	-1576
▁sk	-1577
rent	-1578
▁lost	-1579
▁Su	-1580
atic	-1581
▁aff	-1582
▁given	-1583
▁country	-1584
▁want	-1585
ably	-1586
▁represent	-1587
work	-1588
▁El	-1589
▁signific	-1590
omen	-1591
▁Dav	-1592
▁Cent	-1593
▁manag	-1594
ope	-1595
ploy	-1596
▁General	-1597
vers	-1598
▁equ	-1599
▁2013	-1600
▁press	-1601
ges	-1602
▁Miss	-1603
▁comb	-1604
▁eight	-1605
ades	-1606
reet	-1607
▁sit	-1608
▁seen	-1609
▁site	-1610
irc	-1611
▁program	-1612
sp	-1613
ones	-1614
oon	-1615
▁Afric	-1616
▁match	-1617
▁never	-1618
▁making	-1619
▁fem	-1620
ration	-1621
▁establ	-1622
▁stated	-1623
ither	-1624
▁body	-1625
▁plan	-1626
▁ord	-1627
▁fact	-1628
▁read	-1629
▁should	-1630
▁While	-1631
▁Ev	-1632
sequ	-1633
▁50	-1634
▁returned	-1635
fic	-1636
ator	-1637
▁University	-1638
ological	-1639
▁ft	-1640
▁soc	-1641
aun	-1642
▁er	-1643
▁190	-1644
▁sound	-1645
ape	-1646
rem	-1647
▁how	-1648
▁Ne	-1649
▁gen	-1650
▁These	-1651
▁island	-1652
▁America	-1653
▁cou	-1654
▁earl	-1655
▁ships	-1656
▁announ	-1657
▁struct	-1658
▁established	-1659
ampionship	-1660
▁god	-1661
▁Jack	-1662
▁chart	-1663
▁ground	-1664
▁population	-1665
aff	-1666
▁jo	-1667
ream	-1668
▁cat	-1669
▁div	-1670
▁reached	-1671
▁27	-1672
ground	-1673
na	-1674
view	-1675
▁Ire	-1676
▁light	-1677
▁noted	-1678
ki	-1679
aul	-1680
▁away	-1681
▁Black	-1682
▁friend	-1683
▁Ireland	-1684
ille	-1685
used	-1686
igade	-1687
ument	-1688
ffic	-1689
ination	-1690
ese	-1691
oll	-1692
▁Reg	-1693
▁lim	-1694
▁across	-1695
▁thought	-1696
▁developed	-1697
▁throughout	-1698
iec	-1699
▁Lond	-1700
▁Mich	-1701
▁seven	-1702
aint	-1703
ords	-1704
▁cast	-1705
▁somet	-1706
▁gl	-1707
ster	-1708
▁proc	-1709
▁London	-1710
▁William	-1711
▁pra	-1712
▁rad	-1713
▁introdu	-1714
af	-1715
▁good	-1716
▁Feder	-1717
▁using	-1718
▁himself	-1719
▁development	-1720
▁black	-1721
iness	-1722
omb	-1723
▁Har	-1724
▁hig	-1725
reek	-1726
▁felt	-1727
idence	-1728
▁human	-1729
▁Australia	-1730
▁significant	-1731
aren	-1732
utes	-1733
▁Air	-1734
▁ide	-1735
▁wat	-1736
▁performed	-1737
ump	-1738
▁bar	-1739
▁important	-1740
▁Gl	-1741
ivil	-1742
most	-1743
▁Atl	-1744
▁adm	-1745
itive	-1746
▁night	-1747
▁writing	-1748
▁Ex	-1749
▁Pal	-1750
▁fun	-1751
▁Rich	-1752
▁destroy	-1753
▁Mag	-1754
▁miles	-1755
▁father	-1756
▁bo	-1757
antic	-1758
▁television	-1759
▁Roy	-1760
▁various	-1761
▁interest	-1762
ief	-1763
osaur	-1764
▁areas	-1765
▁tour	-1766
▁white	-1767
imately	-1768
▁modern	-1769
▁full	-1770
ogn	-1771
rie	-1772
▁Cal	-1773
▁enc	-1774
▁ten	-1775
field	-1776
▁died	-1777
▁look	-1778
▁activ	-1779
ael	-1780
aign	-1781
▁law	-1782
▁went	-1783
▁need	-1784
▁Rober	-1785
▁tro	-1786
▁does	-1787
▁prim	-1788
▁events	-1789
▁successful	-1790
▁Road	-1791
ico	-1792
▁red	-1793
ization	-1794
▁discover	-1795
▁players	-1796
▁started	-1797
rab	-1798
▁To	-1799
▁mm	-1800
▁decl	-1801
▁James	-1802
con	-1803
reg	-1804
ript	-1805
▁see	-1806
▁ball	-1807
iting	-1808
▁feet	-1809
▁house	-1810
▁formed	-1811
ks	-1812
ourn	-1813
▁wid	-1814
▁poem	-1815
▁mix	-1816
▁range	-1817
▁techn	-1818
▁sett	-1819
▁Mount	-1820
▁County	-1821
▁performance	-1822
rest	-1823
▁put	-1824
▁vill	-1825
▁style	-1826
▁building	-1827
▁relations	-1828
abor	-1829
▁age	-1830
▁sum	-1831
▁too	-1832
▁force	-1833
▁caused	-1834
ana	-1835
▁ke	-1836
ino	-1837
epend	-1838
ara	-1839
▁You	-1840
▁Ke	-1841
alth	-1842
ublic	-1843
▁sw	-1844
ened	-1845
▁Cro	-1846
▁novel	-1847
▁pri	-1848
iers	-1849
▁189	-1850
isted	-1851
▁created	-1852
▁official	-1853
day	-1854
idd	-1855
fall	-1856
elling	-1857
▁Ang	-1858
▁Som	-1859
asing	-1860
▁2004	-1861
ym	-1862
▁pit	-1863
▁2005	-1864
▁relig	-1865
▁entire	-1866
gr	-1867
eth	-1868
▁Ol	-1869
less	-1870
▁son	-1871
ality	-1872
▁able	-1873
▁coast	-1874
▁political	-1875
ries	-1876
▁High	-1877
ressed	-1878
▁characters	-1879
▁Sec	-1880
▁ste	-1881
inal	-1882
▁Ham	-1883
▁get	-1884
▁others	-1885
▁construction	-1886
▁bird	-1887
▁cert	-1888
▁pred	-1889
▁promot	-1890
ases	-1891
▁battle	-1892
br	-1893
ways	-1894
▁Town	-1895
▁national	-1896
acy	-1897
▁occur	-1898
▁val	-1899
oming	-1900
▁’	-1901
▁Sw	-1902
▁fig	-1903
ample	-1904
play	-1905
▁lik	-1906
ament	-1907
▁Hist	-1908
▁once	-1909
ficult	-1910
▁fac	-1911
▁remained	-1912
por	-1913
▁Bra	-1914
▁Care	-1915
▁located	-1916
▁mount	-1917
▁tradition	-1918
enth	-1919
ivid	-1920
▁rock	-1921
▁works	-1922
▁scored	-1923
▁Kingdom	-1924
▁difficult	-1925
▁31	-1926
craft	-1927
▁guns	-1928
▁redu	-1929
lected	-1930
▁Island	-1931
▁produc	-1932
▁campaign	-1933
▁Cup	-1934
▁Mon	-1935
▁tre	-1936
▁meet	-1937
▁Grand	-1938
▁cross	-1939
▁stars	-1940
▁announced	-1941
▁completed	-1942
▁Australian	-1943
▁rank	-1944
▁region	-1945
ett	-1946
▁hold	-1947
orse	-1948
ounc	-1949
▁nuc	-1950
▁squ	-1951
off	-1952
itted	-1953
▁goal	-1954
▁grow	-1955
▁colle	-1956
▁super	-1957
▁Company	-1958
oid	-1959
umb	-1960
arch	-1961
ique	-1962
▁fav	-1963
▁let	-1964
▁conn	-1965
▁little	-1966
▁process	-1967
aly	-1968
omp	-1969
ray	-1970
enced	-1971
rought	-1972
▁fight	-1973
▁front	-1974
▁instead	-1975
▁Act	-1976
ky	-1977
▁29	-1978
▁circ	-1979
▁added	-1980
here	-1981
leet	-1982
▁Mor	-1983
▁cond	-1984
omm	-1985
duct	-1986
▁least	-1987
▁followed	-1988
▁Bill	-1989
▁know	-1990
▁peak	-1991
▁appeared	-1992
▁born	-1993
▁killed	-1994
angu	-1995
▁months	-1996
▁southern	-1997
▁originally	-1998
urb	-1999
oice	-2000
▁Army	-2001
▁wife	-2002
▁comment	-2003
▁stri	-2004
▁David	-2005
mar	-2006
ota	-2007
▁40	-2008
▁fif	-2009
▁loss	-2010
▁study	-2011
▁mother	-2012
ius	-2013
▁associ	-2014
▁hurricane	-2015
ects	-2016
▁cell	-2017
▁Music	-2018
▁women	-2019
ston	-2020
▁non	-2021
▁sex	-2022
antry	-2023
▁agre	-2024
▁mass	-2025
▁ident	-2026
▁eastern	-2027
▁relationship	-2028
ycl	-2029
▁aud	-2030
▁2003	-2031
▁award	-2032
▁broad	-2033
▁critics	-2034
▁185	-2035
▁anim	-2036
▁eventually	-2037
▁profess	-2038
▁features	-2039
aper	-2040
▁God	-2041
▁voc	-2042
▁2015	-2043
▁Other	-2044
▁young	-2045
olution	-2046
▁recogn	-2047
ata	-2048
gin	-2049
ully	-2050
▁bus	-2051
▁live	-2052
ements	-2053
▁France	-2054
▁aver	-2055
▁fourth	-2056
emy	-2057
▁Ser	-2058
▁estim	-2059
▁route	-2060
▁taken	-2061
cher	-2062
▁Ber	-2063
▁Two	-2064
▁served	-2065
liam	-2066
ores	-2067
istic	-2068
ask	-2069
illa	-2070
▁prote	-2071
ography	-2072
▁commer	-2073
▁appoint	-2074
ze	-2075
▁Co	-2076
chie	-2077
omes	-2078
▁lack	-2079
▁damage	-2080
▁decided	-2081
ama	-2082
unk	-2083
▁Mad	-2084
azine	-2085
igned	-2086
▁heavy	-2087
▁Im	-2088
▁cor	-2089
▁base	-2090
▁either	-2091
▁Battalion	-2092
▁arm	-2093
▁far	-2094
▁insp	-2095
iation	-2096
▁impro	-2097
▁separ	-2098
▁condom	-2099
▁proble	-2100
val	-2101
ought	-2102
▁Part	-2103
▁Robert	-2104
▁behind	-2105
▁special	-2106
ica	-2107
ecut	-2108
▁Love	-2109
▁coll	-2110
gether	-2111
▁individ	-2112
▁believed	-2113
▁together	-2114
ida	-2115
ency	-2116
▁arg	-2117
▁quar	-2118
liament	-2119
ipp	-2120
aves	-2121
▁clos	-2122
iction	-2123
ouncil	-2124
cial	-2125
rict	-2126
▁Carey	-2127
▁Royal	-2128
▁mater	-2129
▁playing	-2130
rap	-2131
▁Red	-2132
▁dou	-2133
▁burn	-2134
aching	-2135
iol	-2136
iber	-2137
▁Med	-2138
▁move	-2139
▁Du	-2140
▁bi	-2141
▁ir	-2142
▁Hen	-2143
▁Mex	-2144
▁dev	-2145
▁vol	-2146
▁close	-2147
▁creat	-2148
▁langu	-2149
▁round	-2150
▁accept	-2151
▁example	-2152
gg	-2153
▁188	-2154
▁Min	-2155
▁Some	-2156
▁almost	-2157
alt	-2158
ests	-2159
▁service	-2160
▁leading	-2161
▁European	-2162
odes	-2163
▁Rep	-2164
▁fall	-2165
▁sour	-2166
▁White	-2167
▁Federer	-2168
▁generally	-2169
▁ce	-2170
▁saw	-2171
ators	-2172
▁opened	-2173
▁towards	-2174
▁elements	-2175
eal	-2176
▁35	-2177
▁miss	-2178
uter	-2179
oring	-2180
▁weeks	-2181
▁Brigade	-2182
▁brought	-2183
▁general	-2184
ceed	-2185
▁mot	-2186
▁Game	-2187
▁Pres	-2188
▁draw	-2189
▁Wales	-2190
▁finished	-2191
▁International	-2192
▁z	-2193
stit	-2194
▁Flor	-2195
▁laun	-2196
oph	-2197
▁Kh	-2198
▁Viet	-2199
▁host	-2200
▁wall	-2201
▁highway	-2202
▁regular	-2203
▁featured	-2204
▁Ir	-2205
cast	-2206
▁central	-2207
▁aircraft	-2208
irl	-2209
ending	-2210
lement	-2211
▁indust	-2212
board	-2213
ordan	-2214
▁East	-2215
ounter	-2216
▁resear	-2217
▁reb	-2218
etwork	-2219
▁points	-2220
▁contract	-2221
eum	-2222
▁fund	-2223
▁inform	-2224
▁directed	-2225
▁-	-2226
▁Mo	-2227
▁mi	-2228
orts	-2229
▁meas	-2230
▁suff	-2231
▁action	-2232
▁director	-2233
▁provided	-2234
▁Championship	-2235
ude	-2236
▁Bo	-2237
hing	-2238
wood	-2239
▁cut	-2240
▁ren	-2241
icated	-2242
▁flood	-2243
▁Follow	-2244
▁respect	-2245
▁nar	-2246
▁mean	-2247
▁sequ	-2248
▁upon	-2249
▁Jordan	-2250
▁Gal	-2251
▁From	-2252
ential	-2253
▁appearance	-2254
ned	-2255
▁186	-2256
▁Jew	-2257
ellow	-2258
▁yard	-2259
▁earlier	-2260
sel	-2261
▁Em	-2262
▁Pe	-2263
▁ly	-2264
atin	-2265
▁Rock	-2266
▁king	-2267
▁Cr	-2268
ights	-2269
▁2014	-2270
▁cost	-2271
▁female	-2272
▁rather	-2273
▁troops	-2274
▁subsequ	-2275
▁Atlantic	-2276
tt	-2277
▁Od	-2278
medi	-2279
▁ill	-2280
▁reve	-2281
▁stru	-2282
ishing	-2283
▁current	-2284
▁Christian	-2285
▁Op	-2286
▁ve	-2287
▁Mary	-2288
▁river	-2289
▁travel	-2290
▁largest	-2291
▁victory	-2292
▁Following	-2293
ander	-2294
▁Hero	-2295
▁House	-2296
▁George	-2297
▁employ	-2298
▁manager	-2299
▁operations	-2300
▁particularly	-2301
ouri	-2302
erous	-2303
▁prob	-2304
▁achie	-2305
ule	-2306
▁fort	-2307
▁wanted	-2308
▁opening	-2309
ving	-2310
▁500	-2311
▁bur	-2312
▁cop	-2313
ength	-2314
▁northern	-2315
ids	-2316
ault	-2317
▁Mac	-2318
▁Play	-2319
▁exist	-2320
▁yards	-2321
osition	-2322
▁evidence	-2323
of	-2324
ita	-2325
▁Sl	-2326
eler	-2327
▁foc	-2328
▁Phil	-2329
▁reason	-2330
▁Florida	-2331
▁conduct	-2332
ee	-2333
ih	-2334
yd	-2335
uck	-2336
head	-2337
reng	-2338
▁Wal	-2339
▁pract	-2340
▁member	-2341
oms	-2342
vest	-2343
▁Bay	-2344
▁Wil	-2345
▁crew	-2346
anding	-2347
▁Street	-2348
▁engine	-2349
▁saying	-2350
▁allowed	-2351
▁outside	-2352
▁possible	-2353
co	-2354
west	-2355
▁Most	-2356
▁Oliv	-2357
▁Paul	-2358
atural	-2359
▁account	-2360
uel	-2361
irth	-2362
▁McC	-2363
▁mer	-2364
▁neg	-2365
▁Mark	-2366
▁past	-2367
▁stage	-2368
conom	-2369
▁whom	-2370
▁hours	-2371
▁respons	-2372
ago	-2373
ify	-2374
▁case	-2375
ington	-2376
artment	-2377
▁Missouri	-2378
▁material	-2379
bor	-2380
ills	-2381
▁2001	-2382
▁desp	-2383
▁regard	-2384
▁worked	-2385
▁But	-2386
▁gre	-2387
▁nec	-2388
▁free	-2389
▁mach	-2390
▁length	-2391
▁object	-2392
▁streng	-2393
▁territ	-2394
aps	-2395
▁Tech	-2396
▁gold	-2397
▁plann	-2398
▁working	-2399
ems	-2400
vert	-2401
▁nomin	-2402
lus	-2403
▁San	-2404
▁rul	-2405
aries	-2406
ville	-2407
▁love	-2408
▁poor	-2409
▁quick	-2410
▁designed	-2411
uk	-2412
ari	-2413
now	-2414
▁Qu	-2415
cent	-2416
▁Vir	-2417
▁football	-2418
urt	-2419
onst	-2420
▁Bus	-2421
▁hon	-2422
▁mult	-2423
▁learn	-2424
▁Indian	-2425
▁praised	-2426
▁construct	-2427
ps	-2428
▁Day	-2429
▁Tor	-2430
▁esc	-2431
▁Best	-2432
ession	-2433
▁First	-2434
▁avail	-2435
▁treat	-2436
▁forced	-2437
▁remains	-2438
▁station	-2439
ites	-2440
▁187	-2441
▁Val	-2442
iding	-2443
rated	-2444
▁1970	-2445
▁viol	-2446
▁goals	-2447
▁Michael	-2448
gypt	-2449
uation	-2450
▁think	-2451
▁winds	-2452
▁Sm	-2453
▁Squ	-2454
heast	-2455
▁diss	-2456
▁above	-2457
▁civil	-2458
▁invest	-2459
▁increased	-2460
▁£	-2461
▁Fe	-2462
hens	-2463
▁Hel	-2464
▁pers	-2465
▁Egypt	-2466
▁previously	-2467
wh	-2468
itz	-2469
ula	-2470
pper	-2471
▁Desp	-2472
▁Thom	-2473
▁soon	-2474
▁replaced	-2475
▁commercial	-2476
asion	-2477
ributed	-2478
▁Richard	-2479
BC	-2480
gl	-2481
▁Ac	-2482
▁Ag	-2483
▁Gr	-2484
▁App	-2485
▁ask	-2486
erved	-2487
▁must	-2488
▁Super	-2489
▁maint	-2490
▁business	-2491
▁interview	-2492
onc	-2493
ste	-2494
olic	-2495
▁Whe	-2496
▁pain	-2497
▁clear	-2498
ription	-2499
▁Despite	-2500
abit	-2501
▁Dep	-2502
▁Que	-2503
osing	-2504
▁Corp	-2505
▁Brown	-2506
▁writer	-2507
▁quarter	-2508
▁°	-2509
ming	-2510
▁unc	-2511
▁2000	-2512
▁Mont	-2513
▁trib	-2514
▁Henry	-2515
▁threat	-2516
AF	-2517
▁Os	-2518
ania	-2519
oney	-2520
▁mph	-2521
atory	-2522
▁units	-2523
▁Canada	-2524
▁estimated	-2525
iff	-2526
ulf	-2527
aker	-2528
▁pen	-2529
▁1990	-2530
▁court	-2531
ibility	-2532
▁Oldham	-2533
▁specific	-2534
▁36	-2535
face	-2536
▁pur	-2537
acing	-2538
▁react	-2539
▁joined	-2540
▁claimed	-2541
▁highest	-2542
▁Japanese	-2543
men	-2544
band	-2545
ching	-2546
ulated	-2547
▁Carol	-2548
▁Times	-2549
▁contr	-2550
ecutive	-2551
▁placed	-2552
▁involved	-2553
▁President	-2554
for	-2555
▁Sun	-2556
▁fly	-2557
▁priv	-2558
▁Govern	-2559
▁signed	-2560
▁western	-2561
▁suggested	-2562
leg	-2563
▁45	-2564
▁183	-2565
▁Mos	-2566
▁syn	-2567
elled	-2568
▁parts	-2569
▁My	-2570
▁Card	-2571
▁Gold	-2572
▁India	-2573
▁intens	-2574
▁Olivier	-2575
▁tru	-2576
thlet	-2577
▁hous	-2578
▁Later	-2579
▁Vietn	-2580
▁School	-2581
▁change	-2582
▁itself	-2583
▁league	-2584
▁proper	-2585
mb	-2586
anna	-2587
▁don	-2588
▁esp	-2589
▁inj	-2590
▁rap	-2591
▁Cong	-2592
▁Hall	-2593
▁shot	-2594
▁Irish	-2595
▁Mexico	-2596
▁average	-2597
ume	-2598
▁Not	-2599
▁hard	-2600
▁taking	-2601
▁available	-2602
urg	-2603
▁ey	-2604
ready	-2605
ronic	-2606
▁break	-2607
▁scene	-2608
▁except	-2609
▁brother	-2610
▁transfer	-2611
▁transport	-2612
▁introduced	-2613
▁Pac	-2614
▁hit	-2615
▁heav	-2616
▁whose	-2617
▁village	-2618
▁recording	-2619
▁Var	-2620
▁Star	-2621
▁race	-2622
▁rail	-2623
▁stop	-2624
▁wood	-2625
porary	-2626
▁Thomas	-2627
▁subject	-2628
go	-2629
rd	-2630
▁60	-2631
▁grad	-2632
▁phys	-2633
▁slow	-2634
▁approx	-2635
▁religious	-2636
▁fr	-2637
▁gra	-2638
▁mem	-2639
achel	-2640
▁educ	-2641
▁network	-2642
▁NY	-2643
▁abs	-2644
▁1960	-2645
▁nine	-2646
▁told	-2647
▁names	-2648
▁remov	-2649
▁shows	-2650
▁Britain	-2651
▁damaged	-2652
iqu	-2653
▁cru	-2654
arily	-2655
▁piec	-2656
▁test	-2657
▁Scient	-2658
▁social	-2659
▁turned	-2660
▁capital	-2661
▁Republic	-2662
▁independ	-2663
▁increasing	-2664
gu	-2665
▁Po	-2666
▁ap	-2667
enes	-2668
▁cal	-2669
▁That	-2670
▁chap	-2671
▁give	-2672
▁Great	-2673
▁lines	-2674
oration	-2675
▁Guitar	-2676
▁Hurricane	-2677
▁structure	-2678
aled	-2679
▁Ant	-2680
▁Many	-2681
▁feel	-2682
▁determ	-2683
▁nearly	-2684
▁despite	-2685
▁appointed	-2686
odies	-2687
▁Zeal	-2688
▁cycl	-2689
▁size	-2690
▁Union	-2691
▁complet	-2692
▁community	-2693
▁?	-2694
hib	-2695
▁La	-2696
ateg	-2697
rang	-2698
▁184	-2699
▁Art	-2700
▁den	-2701
▁bill	-2702
▁date	-2703
▁liter	-2704
▁econom	-2705
▁passed	-2706
▁surround	-2707
▁international	-2708
irt	-2709
oul	-2710
bert	-2711
rian	-2712
▁fut	-2713
inese	-2714
hedral	-2715
▁debut	-2716
▁might	-2717
▁occup	-2718
▁score	-2719
▁withd	-2720
ecially	-2721
osaurus	-2722
▁immedi	-2723
▁certain	-2724
▁establish	-2725
▁initially	-2726
▁Ma	-2727
lict	-2728
▁cas	-2729
▁pot	-2730
▁tow	-2731
▁Ever	-2732
▁deal	-2733
▁disp	-2734
▁going	-2735
▁archae	-2736
▁assist	-2737
▁Pacific	-2738
▁already	-2739
▁winning	-2740
▁particip	-2741
▁Early	-2742
ication	-2743
▁failed	-2744
▁states	-2745
▁Chinese	-2746
▁Zealand	-2747
ha	-2748
rag	-2749
fect	-2750
ires	-2751
▁Don	-2752
▁Jin	-2753
▁doc	-2754
▁male	-2755
▁rain	-2756
ability	-2757
▁forest	-2758
▁language	-2759
▁probably	-2760
▁training	-2761
▁according	-2762
▁especially	-2763
den	-2764
▁Dr	-2765
▁key	-2766
▁2002	-2767
▁Cath	-2768
▁Sing	-2769
▁food	-2770
▁issue	-2771
▁minor	-2772
▁depict	-2773
ification	-2774
nel	-2775
▁III	-2776
▁Law	-2777
▁Pri	-2778
▁aut	-2779
▁Film	-2780
▁daugh	-2781
▁studio	-2782
ady	-2783
▁Tom	-2784
▁Peter	-2785
▁spent	-2786
ference	-2787
▁History	-2788
▁Wheeler	-2789
▁arrived	-2790
▁forward	-2791
▁ordered	-2792
▁includes	-2793
aut	-2794
aval	-2795
ises	-2796
ship	-2797
▁Sch	-2798
stein	-2799
▁army	-2800
▁Angel	-2801
▁block	-2802
▁visit	-2803
ilities	-2804
▁Awards	-2805
▁enough	-2806
▁Canadian	-2807
▁remaining	-2808
onse	-2809
ties	-2810
▁dro	-2811
▁Navy	-2812
▁fail	-2813
▁mixed	-2814
▁sometimes	-2815
zz	-2816
lor	-2817
owl	-2818
▁UK	-2819
▁di	-2820
back	-2821
▁Soc	-2822
▁Ter	-2823
▁Rose	-2824
▁come	-2825
▁Associ	-2826
▁reviews	-2827
▁complete	-2828
▁required	-2829
▁approximately	-2830
quar	-2831
rics	-2832
▁imm	-2833
orial	-2834
ranch	-2835
▁Creek	-2836
▁lower	-2837
▁touch	-2838
▁center	-2839
▁latter	-2840
to	-2841
lymp	-2842
▁Inf	-2843
▁Mer	-2844
▁Met	-2845
▁Penn	-2846
▁Africa	-2847
▁remain	-2848
▁beginning	-2849
down	-2850
inct	-2851
▁Hol	-2852
inist	-2853
stant	-2854
▁Olymp	-2855
▁Virgin	-2856
etic	-2857
▁sem	-2858
▁Stud	-2859
▁journ	-2860
▁woman	-2861
▁limited	-2862
▁prevent	-2863
▁decision	-2864
edy	-2865
▁38	-2866
iest	-2867
rack	-2868
under	-2869
▁dead	-2870
▁happ	-2871
▁better	-2872
▁changes	-2873
▁usually	-2874
▁Regiment	-2875
▁students	-2876
▁additional	-2877
aby	-2878
▁Je	-2879
▁emb	-2880
▁Nort	-2881
▁Rout	-2882
▁stay	-2883
▁Rachel	-2884
▁running	-2885
▁response	-2886
▁president	-2887
▁sch	-2888
adron	-2889
▁Scott	-2890
▁ended	-2891
▁larger	-2892
▁concern	-2893
▁positive	-2894
gar	-2895
▁80	-2896
▁TV	-2897
erat	-2898
▁type	-2899
▁Award	-2900
▁quest	-2901
▁mention	-2902
▁magazine	-2903
▁supported	-2904
ios	-2905
uals	-2906
▁Jer	-2907
▁Fort	-2908
▁notes	-2909
▁prior	-2910
▁police	-2911
▁Charles	-2912
▁pressure	-2913
▁depression	-2914
oor	-2915
enty	-2916
reak	-2917
▁wide	-2918
▁birds	-2919
▁birth	-2920
▁compl	-2921
▁amount	-2922
▁1995	-2923
▁shown	-2924
▁related	-2925
▁Billboard	-2926
▁75	-2927
rief	-2928
▁face	-2929
uments	-2930
▁fifth	-2931
▁future	-2932
▁feature	-2933
rat	-2934
▁Hot	-2935
aring	-2936
▁1980	-2937
▁appl	-2938
▁Under	-2939
▁provide	-2940
▁defeated	-2941
ani	-2942
com	-2943
ils	-2944
arts	-2945
▁anc	-2946
▁che	-2947
▁der	-2948
▁Camp	-2949
▁Hill	-2950
▁staff	-2951
▁discovered	-2952
ifa	-2953
▁Sy	-2954
bers	-2955
▁Pat	-2956
▁Res	-2957
▁sat	-2958
▁sil	-2959
▁Oper	-2960
▁Route	-2961
▁temper	-2962
▁section	-2963
hou	-2964
ney	-2965
▁FI	-2966
▁cm	-2967
enon	-2968
▁Bel	-2969
ishop	-2970
riage	-2971
▁doll	-2972
▁Frank	-2973
▁frequ	-2974
▁Western	-2975
▁becoming	-2976
oo	-2977
gely	-2978
rael	-2979
eding	-2980
▁word	-2981
▁Colle	-2982
▁Light	-2983
key	-2984
oke	-2985
oys	-2986
▁Rh	-2987
ands	-2988
▁vot	-2989
ector	-2990
▁Arab	-2991
▁Wood	-2992
▁exam	-2993
▁smaller	-2994
uf	-2995
raw	-2996
unt	-2997
itte	-2998
▁Tur	-2999
▁flow	-3000
▁idea	-3001
idents	-3002
▁colon	-3003
▁domin	-3004
▁groups	-3005
▁screen	-3006
▁percent	-3007
▁intended	-3008
▁Scientology	-3009
asy	-3010
well	-3011
▁fir	-3012
iforn	-3013
inent	-3014
▁Year	-3015
selves	-3016
▁Haifa	-3017
▁fleet	-3018
▁radio	-3019
▁metres	-3020
▁mostly	-3021
▁conclud	-3022
▁discuss	-3023
▁themselves	-3024
▁professional	-3025
era	-3026
gen	-3027
ses	-3028
ples	-3029
anies	-3030
▁2016	-3031
▁Russ	-3032
▁Croat	-3033
▁likely	-3034
▁minutes	-3035
▁musical	-3036
▁surface	-3037
▁captured	-3038
▁referred	-3039
cean	-3040
iano	-3041
uing	-3042
▁Mil	-3043
anish	-3044
imate	-3045
▁Over	-3046
▁Since	-3047
▁office	-3048
▁largely	-3049
▁problems	-3050
▁Parliament	-3051
▁Association	-3052
ror	-3053
▁Up	-3054
rain	-3055
▁How	-3056
▁lab	-3057
▁try	-3058
▁und	-3059
▁link	-3060
▁indic	-3061
▁media	-3062
▁Portug	-3063
▁contem	-3064
▁summer	-3065
quarters	-3066
▁entered	-3067
iser	-3068
▁Nic	-3069
▁Ott	-3070
▁Sov	-3071
▁Ver	-3072
▁ens	-3073
isions	-3074
orning	-3075
▁Earth	-3076
▁makes	-3077
▁shoot	-3078
▁Israel	-3079
▁moving	-3080
▁observ	-3081
▁broadcast	-3082
▁keep	-3083
▁pair	-3084
▁self	-3085
▁Californ	-3086
▁contains	-3087
▁constructed	-3088
lex	-3089
sen	-3090
▁Bey	-3091
▁Sam	-3092
▁inn	-3093
▁sea	-3094
▁1999	-3095
▁Inter	-3096
▁money	-3097
▁voice	-3098
▁Council	-3099
▁concept	-3100
iva	-3101
ylv	-3102
ruit	-3103
▁Haw	-3104
▁Sur	-3105
▁Ross	-3106
▁adop	-3107
▁cele	-3108
veston	-3109
▁paren	-3110
▁guitar	-3111
▁nature	-3112
▁effects	-3113
▁Galveston	-3114
kan	-3115
ergy	-3116
onym	-3117
▁1950	-3118
▁Chic	-3119
▁grant	-3120
▁Jewish	-3121
▁listed	-3122
▁ranked	-3123
▁stories	-3124
▁majority	-3125
het	-3126
hester	-3127
▁create	-3128
▁consist	-3129
▁research	-3130
▁experience	-3131
ma	-3132
▁70	-3133
▁cle	-3134
▁uns	-3135
urity	-3136
▁Brad	-3137
▁meth	-3138
▁favor	-3139
▁schol	-3140
▁leaving	-3141
▁critical	-3142
▁33	-3143
aven	-3144
ously	-3145
owler	-3146
▁Mart	-3147
▁thus	-3148
▁brief	-3149
▁earth	-3150
eratops	-3151
▁script	-3152
▁primary	-3153
▁controll	-3154
oud	-3155
anks	-3156
pool	-3157
rison	-3158
▁Serv	-3159
▁deep	-3160
▁gods	-3161
▁runs	-3162
ership	-3163
▁films	-3164
▁lived	-3165
▁agreed	-3166
▁always	-3167
▁lyrics	-3168
▁Another	-3169
▁underst	-3170
▁location	-3171
▁officers	-3172
▁ri	-3173
teen	-3174
▁rare	-3175
change	-3176
atively	-3177
ospital	-3178
▁launched	-3179
▁California	-3180
dle	-3181
▁Pet	-3182
▁ded	-3183
aches	-3184
lands	-3185
order	-3186
▁prem	-3187
illery	-3188
▁teams	-3189
▁minute	-3190
▁attract	-3191
▁counter	-3192
▁culture	-3193
▁quickly	-3194
▁Catholic	-3195
▁x	-3196
awn	-3197
ras	-3198
▁If	-3199
▁Mr	-3200
▁amb	-3201
▁Fore	-3202
▁Form	-3203
▁fans	-3204
▁meant	-3205
▁Chicago	-3206
▁episodes	-3207
▁occurred	-3208
▁proposed	-3209
lo	-3210
oir	-3211
▁lo	-3212
imum	-3213
▁400	-3214
▁Saint	-3215
▁adapt	-3216
▁access	-3217
▁whether	-3218
▁assigned	-3219
▁increase	-3220
AS	-3221
umn	-3222
▁32	-3223
▁Bec	-3224
▁Tre	-3225
▁hop	-3226
▁cann	-3227
▁cred	-3228
▁dram	-3229
▁poet	-3230
▁Latin	-3231
▁forms	-3232
▁defeat	-3233
▁appears	-3234
▁changed	-3235
▁product	-3236
▁traffic	-3237
▁destroyed	-3238
iant	-3239
▁Ben	-3240
▁Nix	-3241
▁asp	-3242
▁log	-3243
▁Arch	-3244
▁tons	-3245
▁Enter	-3246
▁trade	-3247
▁Battle	-3248
▁longer	-3249
▁Central	-3250
▁meaning	-3251
▁commission	-3252
ón	-3253
mas	-3254
rol	-3255
▁Ho	-3256
oned	-3257
▁Mey	-3258
▁job	-3259
▁mom	-3260
▁ran	-3261
anced	-3262
ortun	-3263
▁1940	-3264
▁Camb	-3265
▁Scot	-3266
undred	-3267
▁Alice	-3268
▁Sever	-3269
▁bound	-3270
▁nucle	-3271
▁princ	-3272
▁theme	-3273
▁numbers	-3274
▁soldiers	-3275
▁competition	-3276
ex	-3277
▁Dj	-3278
▁Tex	-3279
▁kil	-3280
thing	-3281
▁Ital	-3282
▁acqu	-3283
▁bomb	-3284
▁girl	-3285
▁focus	-3286
▁leave	-3287
▁newsp	-3288
▁reach	-3289
▁awarded	-3290
▁carried	-3291
▁Northern	-3292
tar	-3293
▁300	-3294
▁1998	-3295
▁concert	-3296
▁private	-3297
▁consider	-3298
▁daughter	-3299
▁conducted	-3300
NA	-3301
ows	-3302
▁90	-3303
▁Tw	-3304
anas	-3305
rown	-3306
▁Jam	-3307
▁env	-3308
ening	-3309
▁Second	-3310
▁natural	-3311
▁overall	-3312
▁records	-3313
▁subsequently	-3314
▁BC	-3315
cing	-3316
imin	-3317
▁Del	-3318
▁Tra	-3319
▁deg	-3320
▁1930	-3321
▁anti	-3322
▁dism	-3323
▁emer	-3324
usband	-3325
▁Alkan	-3326
▁Liver	-3327
▁Villa	-3328
▁cause	-3329
▁plans	-3330
▁thick	-3331
▁tourn	-3332
itation	-3333
▁fighting	-3334
ga	-3335
bar	-3336
eds	-3337
lin	-3338
itor	-3339
▁box	-3340
▁lay	-3341
▁sus	-3342
▁ult	-3343
itude	-3344
▁1993	-3345
▁kind	-3346
▁rein	-3347
ective	-3348
▁graph	-3349
▁takes	-3350
▁whole	-3351
▁Polish	-3352
▁double	-3353
▁election	-3354
▁industry	-3355
▁commented	-3356
▁influence	-3357
▁+	-3358
ken	-3359
▁Tay	-3360
▁Minn	-3361
▁Tour	-3362
▁Nixon	-3363
▁asked	-3364
▁bring	-3365
▁finally	-3366
▁serious	-3367
▁Liverpool	-3368
▁Its	-3369
▁dig	-3370
▁jud	-3371
▁tar	-3372
alled	-3373
▁Georg	-3374
▁throw	-3375
▁upper	-3376
stitute	-3377
▁Somers	-3378
▁centre	-3379
▁ending	-3380
▁method	-3381
▁greater	-3382
▁compared	-3383
ny	-3384
olk	-3385
▁47	-3386
ells	-3387
▁Mal	-3388
ittee	-3389
▁Back	-3390
▁Lady	-3391
▁done	-3392
istics	-3393
itting	-3394
▁Texas	-3395
▁party	-3396
▁purch	-3397
ologist	-3398
▁accomp	-3399
▁flight	-3400
▁reject	-3401
▁unable	-3402
▁married	-3403
▁positions	-3404
II	-3405
▁39	-3406
aily	-3407
alys	-3408
ging	-3409
▁Hum	-3410
▁big	-3411
▁our	-3412
▁Foot	-3413
▁rapid	-3414
▁Mosley	-3415
▁market	-3416
▁Somerset	-3417
▁personal	-3418
▁standard	-3419
▁buildings	-3420
agon	-3421
▁Rob	-3422
▁Sol	-3423
▁got	-3424
▁yet	-3425
▁Vict	-3426
▁books	-3427
▁earned	-3428
▁Tropical	-3429
TV	-3430
▁Out	-3431
▁mor	-3432
▁1996	-3433
▁Cour	-3434
▁Tenn	-3435
▁dark	-3436
▁hero	-3437
▁phot	-3438
▁Busch	-3439
▁Three	-3440
▁begins	-3441
▁issued	-3442
▁living	-3443
▁collect	-3444
▁conflict	-3445
ada	-3446
car	-3447
ria	-3448
▁Bob	-3449
▁Fin	-3450
▁Sal	-3451
▁dom	-3452
▁mur	-3453
aught	-3454
▁Lake	-3455
▁terms	-3456
▁marked	-3457
▁directly	-3458
▁traditional	-3459
umed	-3460
▁sal	-3461
athan	-3462
house	-3463
▁aband	-3464
▁Taylor	-3465
▁health	-3466
▁scenes	-3467
▁status	-3468
▁African	-3469
▁Spanish	-3470
▁marriage	-3471
▁movement	-3472
▁Christmas	-3473
rey	-3474
bery	-3475
▁path	-3476
▁Fowler	-3477
▁figure	-3478
▁helped	-3479
▁slight	-3480
▁Command	-3481
▁Several	-3482
adm	-3483
aded	-3484
eway	-3485
itch	-3486
odon	-3487
▁Dem	-3488
▁Lou	-3489
▁pil	-3490
embly	-3491
rical	-3492
▁norm	-3493
▁Cross	-3494
▁Storm	-3495
▁sched	-3496
▁batter	-3497
▁experi	-3498
▁attacks	-3499
▁planned	-3500
▁schools	-3501
▁starting	-3502
▁suffered	-3503
▁information	-3504
anz	-3505
▁rh	-3506
bury	-3507
▁Ill	-3508
▁Nor	-3509
▁lif	-3510
▁Just	-3511
▁Soviet	-3512
▁giving	-3513
▁source	-3514
▁husband	-3515
▁Infantry	-3516
▁inspired	-3517
▁associated	-3518
▁performances	-3519
ien	-3520
cend	-3521
ibly	-3522
ounds	-3523
▁Cont	-3524
▁Jane	-3525
▁plot	-3526
▁Party	-3527
▁closed	-3528
▁transl	-3529
▁condoms	-3530
▁initial	-3531
▁machine	-3532
▁division	-3533
▁presented	-3534
imb	-3535
▁Go	-3536
atre	-3537
ican	-3538
▁Inn	-3539
▁via	-3540
▁room	-3541
tation	-3542
▁Trans	-3543
▁image	-3544
▁polic	-3545
▁Series	-3546
▁raised	-3547
▁greatest	-3548
▁presence	-3549
▁education	-3550
olf	-3551
uff	-3552
▁42	-3553
ares	-3554
erve	-3555
like	-3556
sylv	-3557
▁Six	-3558
▁Tem	-3559
▁pay	-3560
orpor	-3561
▁Cast	-3562
▁Club	-3563
▁Long	-3564
▁fell	-3565
▁susp	-3566
▁unit	-3567
▁uses	-3568
▁Paris	-3569
▁chall	-3570
ections	-3571
▁inters	-3572
▁nearby	-3573
▁hundred	-3574
▁writers	-3575
▁Carolina	-3576
▁Pennsylv	-3577
▁Virginia	-3578
▁continue	-3579
▁document	-3580
án	-3581
iami	-3582
rate	-3583
▁Ram	-3584
iated	-3585
▁Live	-3586
▁park	-3587
▁prep	-3588
▁complex	-3589
▁covered	-3590
▁cyclone	-3591
▁collection	-3592
zy	-3593
rid	-3594
essa	-3595
▁enj	-3596
imony	-3597
inner	-3598
itect	-3599
▁Acad	-3600
▁Mill	-3601
▁talk	-3602
▁weap	-3603
▁Meyer	-3604
▁Queen	-3605
▁habit	-3606
▁space	-3607
▁annual	-3608
▁conver	-3609
▁College	-3610
▁composed	-3611
▁services	-3612
iny	-3613
oncé	-3614
▁sev	-3615
ether	-3616
▁1997	-3617
▁Water	-3618
▁metal	-3619
▁bodies	-3620
▁really	-3621
▁waters	-3622
▁Beyoncé	-3623
▁figures	-3624
▁extended	-3625
▁numerous	-3626
▁producer	-3627
▁cathedral	-3628
▁commander	-3629
▁territory	-3630
een	-3631
▁Lo	-3632
anta	-3633
pted	-3634
tain	-3635
▁Dam	-3636
▁Dan	-3637
▁hot	-3638
ports	-3639
uries	-3640
▁Jose	-3641
▁Miami	-3642
▁Museum	-3643
▁things	-3644
▁vocals	-3645
▁Germany	-3646
▁proteins	-3647
▁something	-3648
▁individual	-3649
ev	-3650
ped	-3651
▁44	-3652
ipal	-3653
ricket	-3654
▁Games	-3655
▁Their	-3656
▁artist	-3657
▁financ	-3658
▁necess	-3659
▁Nations	-3660
▁investig	-3661
▁operation	-3662
apo	-3663
uit	-3664
▁Er	-3665
▁saf	-3666
▁tax	-3667
▁pick	-3668
▁Somal	-3669
estival	-3670
▁detail	-3671
▁highly	-3672
▁impact	-3673
▁Service	-3674
▁Through	-3675
▁morning	-3676
▁request	-3677
▁attacked	-3678
▁attempts	-3679
▁strength	-3680
▁companies	-3681
ado	-3682
ding	-3683
omer	-3684
pole	-3685
▁Cer	-3686
▁Gar	-3687
▁bad	-3688
▁era	-3689
adium	-3690
▁Crit	-3691
▁dise	-3692
▁symb	-3693
▁vers	-3694
admium	-3695
vement	-3696
▁speed	-3697
▁confir	-3698
ribution	-3699
▁recover	-3700
▁interact	-3701
▁artillery	-3702
▁immediately	-3703
▁Pennsylvania	-3704
▁AI	-3705
▁Li	-3706
isher	-3707
track	-3708
▁Cons	-3709
▁plat	-3710
▁purs	-3711
▁spir	-3712
atives	-3713
▁Major	-3714
▁piano	-3715
▁stone	-3716
isation	-3717
▁celebr	-3718
▁tracks	-3719
▁Jackson	-3720
▁kilomet	-3721
▁nuclear	-3722
▁removed	-3723
▁Squadron	-3724
▁allowing	-3725
▁distance	-3726
▁powerful	-3727
▁situation	-3728
hic	-3729
▁51	-3730
iple	-3731
onna	-3732
aging	-3733
andid	-3734
▁kick	-3735
▁purp	-3736
▁rate	-3737
▁blood	-3738
▁Victor	-3739
▁inside	-3740
▁intern	-3741
▁needed	-3742
▁peaked	-3743
▁search	-3744
▁secret	-3745
▁sexual	-3746
▁advance	-3747
▁friends	-3748
▁offered	-3749
▁studies	-3750
▁variety	-3751
▁Scotland	-3752
▁selected	-3753
oura	-3754
rial	-3755
▁182	-3756
▁Bet	-3757
▁Los	-3758
▁Rad	-3759
▁Sir	-3760
izing	-3761
▁1991	-3762
▁Both	-3763
▁mole	-3764
▁prec	-3765
▁stra	-3766
▁text	-3767
▁Chris	-3768
▁coach	-3769
▁means	-3770
▁copies	-3771
▁native	-3772
▁Football	-3773
▁attempted	-3774
▁countries	-3775
▁headquarters	-3776
ims	-3777
▁Land	-3778
▁Open	-3779
▁rule	-3780
▁China	-3781
▁hands	-3782
▁advant	-3783
▁casual	-3784
▁widely	-3785
▁scoring	-3786
▁responsible	-3787
▁respectively	-3788
aen	-3789
alty	-3790
hood	-3791
send	-3792
ware	-3793
▁ang	-3794
▁har	-3795
▁max	-3796
annel	-3797
▁Alex	-3798
▁sets	-3799
▁genus	-3800
▁grand	-3801
▁extrem	-3802
▁higher	-3803
▁Anderson	-3804
▁describes	-3805
▁touchdown	-3806
▁Department	-3807
▁controvers	-3808
▁appearances	-3809
hew	-3810
aped	-3811
ends	-3812
iron	-3813
▁Are	-3814
▁Off	-3815
▁1992	-3816
▁Post	-3817
▁canc	-3818
▁magn	-3819
▁Braat	-3820
▁Corps	-3821
▁lands	-3822
▁course	-3823
▁middle	-3824
▁constit	-3825
▁heavily	-3826
▁observed	-3827
MS	-3828
me	-3829
vin	-3830
rane	-3831
▁Bre	-3832
▁Nes	-3833
▁Rev	-3834
▁ess	-3835
ellig	-3836
illed	-3837
shire	-3838
▁1994	-3839
▁Time	-3840
▁seem	-3841
▁adult	-3842
▁below	-3843
▁enjoy	-3844
▁sixth	-3845
▁xenon	-3846
▁compos	-3847
▁relief	-3848
▁display	-3849
▁meeting	-3850
▁reduced	-3851
▁administ	-3852
▁37	-3853
▁48	-3854
▁76	-3855
esota	-3856
force	-3857
light	-3858
umber	-3859
▁Like	-3860
▁Midd	-3861
▁blue	-3862
▁jump	-3863
▁active	-3864
▁singer	-3865
ulations	-3866
▁matches	-3867
▁audience	-3868
▁opportun	-3869
▁resulted	-3870
▁Minnesota	-3871
▁concluded	-3872
isk	-3873
▁Cor	-3874
▁Emp	-3875
▁Pit	-3876
▁hol	-3877
akapo	-3878
inkel	-3879
rance	-3880
uated	-3881
▁Capt	-3882
▁corn	-3883
▁hour	-3884
▁true	-3885
▁wing	-3886
▁Smith	-3887
▁paper	-3888
▁shell	-3889
▁instit	-3890
▁activity	-3891
▁activities	-3892
▁completely	-3893
isl	-3894
ris	-3895
▁pu	-3896
room	-3897
utch	-3898
▁Bol	-3899
▁Jul	-3900
▁Sea	-3901
▁cer	-3902
athus	-3903
▁bene	-3904
▁Green	-3905
▁Hawai	-3906
▁Center	-3907
▁disapp	-3908
▁Italian	-3909
▁Meyerbe	-3910
▁managed	-3911
▁stating	-3912
▁Rosebery	-3913
▁Southern	-3914
▁Townsend	-3915
▁question	-3916
▁revealed	-3917
▁contemporary	-3918
ād	-3919
ift	-3920
▁Ka	-3921
▁Fur	-3922
▁Jim	-3923
ipped	-3924
▁Dist	-3925
▁drum	-3926
ounded	-3927
▁trees	-3928
▁Nicole	-3929
▁levels	-3930
ervation	-3931
▁quality	-3932
▁refused	-3933
▁declared	-3934
▁separate	-3935
▁Meyerbeer	-3936
bed	-3937
bird	-3938
rowd	-3939
▁pun	-3940
acher	-3941
▁Conf	-3942
ecting	-3943
▁Force	-3944
▁brown	-3945
▁Finkel	-3946
▁Because	-3947
▁Thunder	-3948
▁Walpole	-3949
▁approach	-3950
▁contrast	-3951
▁Finkelstein	-3952
▁Do	-3953
▁du	-3954
ingu	-3955
▁150	-3956
▁Cat	-3957
▁Yue	-3958
▁lot	-3959
estic	-3960
peror	-3961
stone	-3962
▁webs	-3963
▁Shiva	-3964
▁Tessa	-3965
▁carry	-3966
▁model	-3967
▁today	-3968
▁vocal	-3969
▁recent	-3970
▁parents	-3971
▁respond	-3972
▁featuring	-3973
▁reception	-3974
▁typically	-3975
▁background	-3976
▁historical	-3977
▁university	-3978
aha	-3979
gal	-3980
▁52	-3981
hold	-3982
road	-3983
▁Pre	-3984
▁Sar	-3985
▁pow	-3986
anger	-3987
itual	-3988
▁Blue	-3989
▁Wild	-3990
▁beat	-3991
▁chem	-3992
▁emot	-3993
▁hair	-3994
▁walk	-3995
orship	-3996
▁Charl	-3997
▁displ	-3998
▁peace	-3999
▁plays	-4000
▁vehic	-4001
▁Illino	-4002
▁issues	-4003
▁nation	-4004
▁Ottoman	-4005
▁Society	-4006
▁actions	-4007
▁expected	-4008
▁conditions	-4009
FA	-4010
ka	-4011
▁Ro	-4012
iled	-4013
ogue	-4014
ying	-4015
▁Hal	-4016
▁inh	-4017
▁roy	-4018
arent	-4019
▁Balt	-4020
▁Spec	-4021
▁rear	-4022
▁famil	-4023
▁houses	-4024
▁mainly	-4025
▁weaken	-4026
▁assault	-4027
▁becomes	-4028
▁efforts	-4029
▁attention	-4030
ype	-4031
▁34	-4032
▁Av	-4033
▁Om	-4034
ocks	-4035
▁Des	-4036
▁mel	-4037
usion	-4038
▁Adam	-4039
▁Turn	-4040
▁wear	-4041
eption	-4042
▁Court	-4043
▁Franc	-4044
▁draft	-4045
▁instr	-4046
▁offer	-4047
essions	-4048
▁specim	-4049
▁strugg	-4050
▁Highway	-4051
▁Braathens	-4052
▁residents	-4053
BA	-4054
bon	-4055
ocr	-4056
emic	-4057
oses	-4058
▁Arg	-4059
▁Tod	-4060
ufact	-4061
▁Burn	-4062
▁Hait	-4063
▁elev	-4064
▁sense	-4065
▁athlet	-4066
▁recomm	-4067
▁titles	-4068
▁calling	-4069
▁demonst	-4070
▁protein	-4071
▁actually	-4072
▁soundtrack	-4073
edo	-4074
▁sn	-4075
enge	-4076
▁Def	-4077
ledge	-4078
▁poly	-4079
onents	-4080
▁board	-4081
▁crowd	-4082
▁roles	-4083
▁thous	-4084
▁write	-4085
▁Columb	-4086
▁Little	-4087
▁altern	-4088
▁cannot	-4089
▁defend	-4090
▁struck	-4091
▁Johnson	-4092
▁seasons	-4093
▁accepted	-4094
▁achieved	-4095
▁Portugues	-4096
▁architect	-4097
▁Government	-4098
ipl	-4099
iro	-4100
ply	-4101
▁Of	-4102
anes	-4103
berg	-4104
▁Fam	-4105
▁Fey	-4106
▁Mog	-4107
▁nin	-4108
▁thr	-4109
cript	-4110
pping	-4111
▁resc	-4112
alysis	-4113
ension	-4114
utions	-4115
▁fruit	-4116
▁types	-4117
▁scient	-4118
ications	-4119
▁Vietnam	-4120
▁practice	-4121
▁Portuguese	-4122
wen	-4123
▁lb	-4124
roll	-4125
▁181	-4126
▁Add	-4127
▁Mat	-4128
▁cam	-4129
▁dyn	-4130
anded	-4131
echan	-4132
eller	-4133
▁scul	-4134
anning	-4135
▁Spain	-4136
▁avoid	-4137
▁rough	-4138
▁Secret	-4139
irection	-4140
▁Academy	-4141
▁fiction	-4142
▁distinct	-4143
▁infantry	-4144
▁sequence	-4145
▁primarily	-4146
iles	-4147
▁Fer	-4148
▁1986	-4149
▁Book	-4150
▁Tint	-4151
▁Civil	-4152
▁Group	-4153
▁Young	-4154
▁owned	-4155
▁plant	-4156
▁sales	-4157
▁Engine	-4158
▁combat	-4159
▁spread	-4160
▁twenty	-4161
▁elected	-4162
▁slightly	-4163
met	-4164
use	-4165
▁Es	-4166
▁Ann	-4167
▁suc	-4168
ograp	-4169
▁Sarn	-4170
▁Wels	-4171
▁sust	-4172
ceeded	-4173
▁Horse	-4174
▁Louis	-4175
▁extra	-4176
▁heart	-4177
▁scale	-4178
▁sport	-4179
onymous	-4180
▁Prince	-4181
▁county	-4182
▁inches	-4183
▁rights	-4184
▁sister	-4185
▁Captain	-4186
▁concent	-4187
▁affected	-4188
▁expressed	-4189
▁northeast	-4190
▁offensive	-4191
AA	-4192
ols	-4193
ora	-4194
▁180	-4195
▁Att	-4196
▁Che	-4197
▁Dou	-4198
▁Tri	-4199
▁mis	-4200
▁ple	-4201
right	-4202
ushed	-4203
▁Nesb	-4204
▁farm	-4205
▁sout	-4206
▁Welsh	-4207
▁neigh	-4208
▁words	-4209
▁Review	-4210
▁Tintin	-4211
▁showed	-4212
▁officer	-4213
▁progress	-4214
igg	-4215
▁hy	-4216
igan	-4217
mond	-4218
orus	-4219
▁Adm	-4220
▁Sil	-4221
anasi	-4222
astic	-4223
▁Manc	-4224
▁Zhou	-4225
mitted	-4226
▁Ceres	-4227
▁excav	-4228
▁Andrew	-4229
▁Empire	-4230
▁Though	-4231
▁themes	-4232
ironment	-4233
▁ability	-4234
▁Varanasi	-4235
▁combined	-4236
▁battalion	-4237
▁newspaper	-4238
ovic	-4239
rect	-4240
▁Fred	-4241
▁mess	-4242
▁qual	-4243
▁Apple	-4244
▁Odaen	-4245
▁horse	-4246
▁Commun	-4247
▁square	-4248
▁titled	-4249
▁Nesbitt	-4250
▁portray	-4251
▁cultural	-4252
▁casualties	-4253
▁49	-4254
▁ox	-4255
aine	-4256
▁Eva	-4257
▁Tru	-4258
▁Way	-4259
while	-4260
▁says	-4261
▁cerem	-4262
▁grass	-4263
▁reign	-4264
▁murder	-4265
▁remark	-4266
▁Angeles	-4267
▁ancient	-4268
▁produce	-4269
▁Illinois	-4270
▁earliest	-4271
▁mountain	-4272
▁continues	-4273
▁mentioned	-4274
▁Odaenathus	-4275
Mont	-4276
etts	-4277
inus	-4278
laim	-4279
nown	-4280
oper	-4281
osen	-4282
▁Boy	-4283
▁Cra	-4284
▁Jos	-4285
enant	-4286
ented	-4287
▁1920	-4288
▁Wash	-4289
orpedo	-4290
▁Mogad	-4291
▁actor	-4292
▁fully	-4293
▁print	-4294
▁Direct	-4295
▁DuMont	-4296
▁Sarnia	-4297
▁narrow	-4298
▁Olympic	-4299
▁Records	-4300
▁adopted	-4301
▁artists	-4302
▁disease	-4303
▁mission	-4304
▁flooding	-4305
▁manufact	-4306
▁advantage	-4307
▁resulting	-4308
▁influenced	-4309
▁authorities	-4310
▁championship	-4311
ura	-4312
▁65	-4313
▁Cap	-4314
▁spl	-4315
▁Prot	-4316
▁nest	-4317
▁wild	-4318
▁Colon	-4319
▁Perón	-4320
▁basis	-4321
▁legal	-4322
▁reports	-4323
▁represented	-4324
asc	-4325
▁NC	-4326
ella	-4327
helm	-4328
lies	-4329
mark	-4330
▁Pop	-4331
▁agg	-4332
lings	-4333
▁News	-4334
▁Week	-4335
▁bott	-4336
▁mile	-4337
▁alone	-4338
▁begin	-4339
▁exhib	-4340
▁sides	-4341
▁tower	-4342
▁Middle	-4343
▁bridge	-4344
▁candid	-4345
▁coming	-4346
▁toward	-4347
▁defense	-4348
▁letters	-4349
▁viewers	-4350
▁apparent	-4351
▁withdraw	-4352
▁Manchester	-4353
▁tournament	-4354
▁Thunderbird	-4355
bit	-4356
▁SR	-4357
ancy	-4358
writ	-4359
▁Lar	-4360
▁hun	-4361
▁rat	-4362
▁Four	-4363
▁Home	-4364
▁Horn	-4365
▁Clark	-4366
▁Ocean	-4367
▁armed	-4368
▁effort	-4369
▁illust	-4370
▁kakapo	-4371
▁yellow	-4372
▁founded	-4373
▁torpedo	-4374
▁workers	-4375
▁occasion	-4376
▁alongside	-4377
▁direction	-4378
▁northwest	-4379
▁Washington	-4380
▁relatively	-4381
ala	-4382
lam	-4383
aith	-4384
bour	-4385
iana	-4386
lers	-4387
▁Max	-4388
▁Van	-4389
▁adj	-4390
▁sac	-4391
ulate	-4392
▁1988	-4393
▁emph	-4394
▁hors	-4395
▁rang	-4396
ricult	-4397
▁tried	-4398
▁losing	-4399
▁mechan	-4400
▁cadmium	-4401
▁capture	-4402
▁contact	-4403
▁contain	-4404
▁edition	-4405
▁univers	-4406
▁attended	-4407
▁physical	-4408
▁organized	-4409
▁officially	-4410
▁individuals	-4411
▁transferred	-4412
lim	-4413
▁Hu	-4414
adel	-4415
gend	-4416
▁Sum	-4417
▁ast	-4418
abama	-4419
ental	-4420
prise	-4421
▁Mass	-4422
▁Mean	-4423
▁neut	-4424
▁Omaha	-4425
▁behav	-4426
▁Joseph	-4427
▁acting	-4428
▁perman	-4429
▁proved	-4430
▁winter	-4431
▁Alabama	-4432
▁measure	-4433
▁pattern	-4434
▁require	-4435
▁Mogadish	-4436
▁rainfall	-4437
▁dedicated	-4438
▁officials	-4439
▁surrounding	-4440
can	-4441
che	-4442
▁64	-4443
▁Bu	-4444
▁MD	-4445
inem	-4446
rong	-4447
uous	-4448
▁Arm	-4449
▁Sen	-4450
imore	-4451
▁Dest	-4452
▁Kent	-4453
▁edge	-4454
▁doing	-4455
▁feder	-4456
▁lives	-4457
▁Edward	-4458
▁couple	-4459
▁energy	-4460
ij	-4461
azz	-4462
ibr	-4463
onn	-4464
▁46	-4465
▁wa	-4466
iate	-4467
izes	-4468
▁Fant	-4469
▁Gall	-4470
▁Lord	-4471
▁folk	-4472
▁mind	-4473
itness	-4474
▁Helms	-4475
▁Innis	-4476
▁chief	-4477
▁shape	-4478
▁dissip	-4479
▁prepar	-4480
▁divided	-4481
▁follows	-4482
▁shortly	-4483
▁society	-4484
▁Independ	-4485
▁function	-4486
▁possibly	-4487
▁Mogadishu	-4488
▁Reception	-4489
▁financial	-4490
▁intensity	-4491
▁designated	-4492
RA	-4493
▁Bh	-4494
kare	-4495
▁Lis	-4496
▁eye	-4497
▁1964	-4498
▁Bowl	-4499
▁Prem	-4500
▁paid	-4501
▁repe	-4502
▁youn	-4503
▁your	-4504
▁Journ	-4505
▁faced	-4506
▁older	-4507
▁Argent	-4508
▁Histor	-4509
▁McCall	-4510
▁albums	-4511
▁border	-4512
▁images	-4513
▁legisl	-4514
▁letter	-4515
▁simply	-4516
▁Wilhelm	-4517
▁journal	-4518
▁maximum	-4519
▁sources	-4520
▁incorpor	-4521
▁determined	-4522
VD	-4523
ux	-4524
eer	-4525
ugby	-4526
wide	-4527
▁End	-4528
▁aid	-4529
aling	-4530
▁Kore	-4531
▁doub	-4532
▁kept	-4533
▁onto	-4534
▁thir	-4535
enture	-4536
inated	-4537
ipment	-4538
▁movie	-4539
▁piece	-4540
▁advert	-4541
▁broken	-4542
▁comedy	-4543
▁emphas	-4544
▁master	-4545
▁places	-4546
▁sculpt	-4547
▁portion	-4548
▁Assembly	-4549
▁potential	-4550
udd	-4551
edar	-4552
▁Jup	-4553
▁dut	-4554
▁hom	-4555
▁rom	-4556
▁frag	-4557
▁iron	-4558
▁Fleet	-4559
▁PlayS	-4560
▁royal	-4561
duction	-4562
▁argued	-4563
▁charge	-4564
▁cities	-4565
▁domestic	-4566
▁Commission	-4567
▁PlayStation	-4568
ety	-4569
▁53	-4570
▁55	-4571
▁FA	-4572
▁Kn	-4573
▁ge	-4574
agan	-4575
asty	-4576
▁Bir	-4577
▁Rih	-4578
▁Ven	-4579
▁unk	-4580
istry	-4581
▁Good	-4582
▁grew	-4583
▁roll	-4584
▁spot	-4585
▁step	-4586
isters	-4587
▁Night	-4588
▁color	-4589
▁depth	-4590
▁sites	-4591
lection	-4592
▁Common	-4593
▁Hamels	-4594
▁Valley	-4595
▁Rihanna	-4596
▁content	-4597
▁projects	-4598
▁suggests	-4599
▁Baltimore	-4600
▁authority	-4601
▁management	-4602
lys	-4603
umes	-4604
▁Sky	-4605
▁say	-4606
▁wor	-4607
▁Djed	-4608
▁Writ	-4609
▁fung	-4610
▁phil	-4611
▁sens	-4612
▁wave	-4613
▁weak	-4614
ertain	-4615
▁Greek	-4616
▁artic	-4617
▁homes	-4618
▁paint	-4619
▁share	-4620
▁twice	-4621
acement	-4622
▁Palest	-4623
▁attend	-4624
▁belong	-4625
▁depart	-4626
▁gained	-4627
▁museum	-4628
▁prison	-4629
▁target	-4630
▁causing	-4631
▁schedul	-4632
▁science	-4633
▁website	-4634
▁Constant	-4635
▁entrance	-4636
▁hospital	-4637
▁criticized	-4638
▁structures	-4639
▁ultimately	-4640
▁Ul	-4641
▁Big	-4642
▁DVD	-4643
▁Lew	-4644
▁Pen	-4645
▁hyd	-4646
▁Anth	-4647
▁fres	-4648
▁vess	-4649
rative	-4650
▁mouth	-4651
▁Forest	-4652
▁deploy	-4653
▁interp	-4654
▁Jupiter	-4655
▁debuted	-4656
▁defence	-4657
▁dismiss	-4658
▁results	-4659
▁Djedkare	-4660
▁intellig	-4661
▁formation	-4662
▁containing	-4663
gn	-4664
ya	-4665
yr	-4666
ati	-4667
rel	-4668
▁56	-4669
▁Us	-4670
▁kg	-4671
atur	-4672
▁Bur	-4673
▁Hib	-4674
orter	-4675
▁1947	-4676
▁More	-4677
▁core	-4678
▁fast	-4679
▁opin	-4680
▁tail	-4681
▁label	-4682
▁miner	-4683
▁remix	-4684
▁Torres	-4685
▁chosen	-4686
▁planet	-4687
▁battles	-4688
▁cricket	-4689
▁foreign	-4690
▁collabor	-4691
▁defensive	-4692
▁43	-4693
▁Ox	-4694
more	-4695
▁120	-4696
▁Jon	-4697
▁fix	-4698
▁pan	-4699
▁Chap	-4700
▁Lock	-4701
▁inch	-4702
▁Child	-4703
▁Short	-4704
▁enter	-4705
▁animal	-4706
▁buried	-4707
▁Eastern	-4708
▁brigade	-4709
▁granted	-4710
▁growing	-4711
▁rejected	-4712
▁security	-4713
▁standing	-4714
▁abandoned	-4715
▁prominent	-4716
▁reference	-4717
▁consecutive	-4718
▁independent	-4719
▁organization	-4720
ML	-4721
bl	-4722
then	-4723
▁Gre	-4724
▁ven	-4725
white	-4726
▁1941	-4727
▁Once	-4728
▁diam	-4729
▁doct	-4730
▁sand	-4731
▁seek	-4732
ocated	-4733
▁Field	-4734
▁cells	-4735
▁claims	-4736
▁colony	-4737
▁orders	-4738
▁temple	-4739
▁weight	-4740
ographer	-4741
▁Airport	-4742
▁student	-4743
▁visited	-4744
▁Scottish	-4745
▁condition	-4746
▁therefore	-4747
▁Applewhite	-4748
AFE	-4749
ees	-4750
mon	-4751
▁RA	-4752
▁So	-4753
airs	-4754
mosp	-4755
phia	-4756
▁BBC	-4757
▁Bon	-4758
▁Cre	-4759
▁mic	-4760
iring	-4761
▁1987	-4762
▁Norm	-4763
▁SAFE	-4764
▁risk	-4765
▁broke	-4766
▁dress	-4767
▁newly	-4768
▁spect	-4769
▁moment	-4770
adelphia	-4771
▁regions	-4772
▁seconds	-4773
▁singles	-4774
▁wounded	-4775
ao	-4776
resp	-4777
▁tur	-4778
oured	-4779
▁fear	-4780
▁solo	-4781
asters	-4782
ushing	-4783
▁ahead	-4784
▁cases	-4785
▁enemy	-4786
▁seems	-4787
▁Indust	-4788
▁height	-4789
fficient	-4790
▁Egyptian	-4791
▁reaching	-4792
▁versions	-4793
▁Institute	-4794
▁equipment	-4795
▁knowledge	-4796
▁nominated	-4797
▁Background	-4798
▁identified	-4799
▁temperature	-4800
tav	-4801
▁41	-4802
ners	-4803
▁Ban	-4804
▁Due	-4805
▁Jur	-4806
▁bud	-4807
▁tun	-4808
ading	-4809
urban	-4810
▁1972	-4811
▁1984	-4812
▁1989	-4813
▁cust	-4814
▁aired	-4815
▁males	-4816
▁Before	-4817
▁campus	-4818
▁unique	-4819
▁Croatia	-4820
▁Further	-4821
▁council	-4822
▁element	-4823
▁opposed	-4824
▁problem	-4825
▁returning	-4826
▁supporting	-4827
▁environment	-4828
Le	-4829
cy	-4830
ads	-4831
ero	-4832
mun	-4833
▁54	-4834
ette	-4835
oted	-4836
▁Kir	-4837
▁Sub	-4838
▁fox	-4839
▁tim	-4840
▁unp	-4841
ishes	-4842
▁1985	-4843
▁Carl	-4844
▁Each	-4845
▁Mike	-4846
▁fired	-4847
▁Origin	-4848
▁atmosp	-4849
▁looking	-4850
▁perfect	-4851
▁teacher	-4852
▁unknown	-4853
▁analysis	-4854
▁operated	-4855
▁scholars	-4856
▁straight	-4857
▁Entertain	-4858
▁Operation	-4859
▁literature	-4860
▁increasingly	-4861
uct	-4862
▁Id	-4863
▁Ry	-4864
▁ec	-4865
alle	-4866
ider	-4867
▁HMS	-4868
▁Kar	-4869
▁Ret	-4870
▁boy	-4871
aming	-4872
ighth	-4873
ortal	-4874
▁Swed	-4875
▁acad	-4876
▁here	-4877
stream	-4878
▁alter	-4879
▁burns	-4880
▁compr	-4881
▁defin	-4882
▁ideas	-4883
▁molec	-4884
▁Barrow	-4885
▁theory	-4886
▁writes	-4887
▁Cardiff	-4888
▁believe	-4889
▁weather	-4890
▁breeding	-4891
▁commonly	-4892
▁confirmed	-4893
▁explained	-4894
▁historian	-4895
▁settlement	-4896
eg	-4897
ato	-4898
uge	-4899
ych	-4900
▁od	-4901
▁vo	-4902
aved	-4903
▁Key	-4904
▁Mic	-4905
▁oil	-4906
▁1944	-4907
▁Even	-4908
▁Only	-4909
▁Stan	-4910
▁Vill	-4911
▁Class	-4912
▁Keats	-4913
▁Never	-4914
▁Public	-4915
▁arrest	-4916
▁strike	-4917
▁Develop	-4918
▁females	-4919
▁herself	-4920
▁singing	-4921
▁systems	-4922
▁Congress	-4923
▁Michigan	-4924
▁advanced	-4925
▁economic	-4926
▁landfall	-4927
▁property	-4928
▁stations	-4929
▁consisted	-4930
▁criticism	-4931
▁controlled	-4932
▁parliament	-4933
▁Philadelphia	-4934
hu	-4935
awa	-4936
ket	-4937
▁Gi	-4938
▁Ll	-4939
illo	-4940
weet	-4941
▁130	-4942
▁Rog	-4943
asure	-4944
▁Gord	-4945
▁Hart	-4946
▁imag	-4947
▁pict	-4948
▁semi	-4949
alions	-4950
▁exped	-4951
▁growth	-4952
▁leader	-4953
▁pieces	-4954
▁Mounted	-4955
▁deities	-4956
▁dropped	-4957
▁failure	-4958
▁Addition	-4959
▁Williams	-4960
▁creation	-4961
▁Meanwhile	-4962
▁maintained	-4963
ena	-4964
rak	-4965
▁57	-4966
▁Ap	-4967
▁Lu	-4968
hips	-4969
unic	-4970
▁Bas	-4971
▁Den	-4972
▁Leg	-4973
▁Luc	-4974
▁Ros	-4975
▁gar	-4976
▁mob	-4977
fully	-4978
inary	-4979
inity	-4980
▁Gard	-4981
▁Matt	-4982
▁fict	-4983
▁Album	-4984
▁Dutch	-4985
▁guest	-4986
▁honor	-4987
▁arrang	-4988
▁awards	-4989
▁compar	-4990
▁filmed	-4991
▁flying	-4992
▁injury	-4993
▁resemb	-4994
▁federal	-4995
▁freeway	-4996
▁killing	-4997
▁pitched	-4998
ias	-4999
▁Gh	-5000
onom	-5001
▁600	-5002
▁Abu	-5003
▁Der	-5004
▁Dis	-5005
▁Dun	-5006
▁bit	-5007
▁sen	-5008
antly	-5009
ieval	-5010
▁Andy	-5011
▁Bost	-5012
▁Jeff	-5013
▁mist	-5014
▁tact	-5015
▁task	-5016
ampion	-5017
ashion	-5018
lusion	-5019
▁Guard	-5020
▁Italy	-5021
▁Steve	-5022
▁boats	-5023
▁serve	-5024
▁speak	-5025
▁value	-5026
▁Nathan	-5027
▁belief	-5028
▁horses	-5029
▁humans	-5030
▁matter	-5031
▁actress	-5032
▁battery	-5033
▁mounted	-5034
▁rapidly	-5035
▁restaur	-5036
▁retired	-5037
▁weapons	-5038
▁Minister	-5039
▁promoted	-5040
▁religion	-5041
jo	-5042
kin	-5043
uli	-5044
▁ut	-5045
ager	-5046
alls	-5047
iced	-5048
ieut	-5049
roph	-5050
▁Ast	-5051
▁Les	-5052
▁Mod	-5053
▁bid	-5054
▁ham	-5055
ersey	-5056
▁Cold	-5057
▁bank	-5058
▁clean	-5059
▁flank	-5060
▁premi	-5061
▁column	-5062
▁cougar	-5063
▁passes	-5064
cription	-5065
▁passing	-5066
▁protest	-5067
▁selling	-5068
▁accompan	-5069
▁agricult	-5070
▁creating	-5071
▁invasion	-5072
▁multiple	-5073
▁prepared	-5074
▁Americans	-5075
▁connected	-5076
▁promotion	-5077
▁Conference	-5078
▁recognized	-5079
▁description	-5080
▁publication	-5081
▁significantly	-5082
cop	-5083
han	-5084
▁mo	-5085
fort	-5086
haps	-5087
icks	-5088
rete	-5089
▁Mem	-5090
▁Mur	-5091
▁Wat	-5092
amese	-5093
chers	-5094
▁Inst	-5095
▁Slam	-5096
▁Work	-5097
▁bats	-5098
▁data	-5099
itable	-5100
render	-5101
▁Final	-5102
▁Video	-5103
▁chose	-5104
▁walls	-5105
▁famous	-5106
▁silver	-5107
▁sought	-5108
▁starts	-5109
▁volume	-5110
▁aspects	-5111
▁deliver	-5112
▁nucleus	-5113
▁seventh	-5114
▁reaction	-5115
▁regarded	-5116
▁necessary	-5117
▁producers	-5118
▁scheduled	-5119
▁popularity	-5120
▁strengthen	-5121
ca	-5122
hi	-5123
ote	-5124
yth	-5125
▁96	-5126
load	-5127
ogen	-5128
▁Ari	-5129
lying	-5130
olved	-5131
▁1981	-5132
▁Cole	-5133
▁Gulf	-5134
▁Line	-5135
▁drop	-5136
▁laid	-5137
▁news	-5138
▁rise	-5139
▁send	-5140
▁virt	-5141
heless	-5142
▁Liber	-5143
▁beaut	-5144
▁rival	-5145
▁strik	-5146
▁philos	-5147
▁reform	-5148
▁landing	-5149
▁sustained	-5150
▁Vietnamese	-5151
hm	-5152
ips	-5153
och	-5154
uan	-5155
āda	-5156
▁Mu	-5157
▁Adv	-5158
▁Naz	-5159
▁Obs	-5160
▁Pho	-5161
▁USA	-5162
▁fat	-5163
ocked	-5164
venue	-5165
▁Sund	-5166
ifying	-5167
▁Among	-5168
▁Haven	-5169
▁dated	-5170
▁drive	-5171
▁outer	-5172
▁Cambod	-5173
▁budget	-5174
▁castle	-5175
▁fought	-5176
▁spring	-5177
standing	-5178
▁reflect	-5179
▁employed	-5180
▁families	-5181
▁currently	-5182
▁Thunderbirds	-5183
yt	-5184
add	-5185
ini	-5186
rum	-5187
hess	-5188
▁179	-5189
▁700	-5190
▁pul	-5191
▁row	-5192
ivity	-5193
onent	-5194
orney	-5195
▁1939	-5196
▁Girl	-5197
▁arms	-5198
▁ends	-5199
▁exec	-5200
▁save	-5201
▁tree	-5202
iments	-5203
insula	-5204
▁Domin	-5205
▁phase	-5206
▁trial	-5207
▁Athlet	-5208
▁Oxford	-5209
▁rating	-5210
heastern	-5211
ologists	-5212
▁contained	-5213
▁facilities	-5214
▁frequently	-5215
▁underground	-5216
▁Entertainment	-5217
TC	-5218
ii	-5219
sw	-5220
aph	-5221
rig	-5222
rog	-5223
sea	-5224
▁Ca	-5225
▁NH	-5226
▁la	-5227
thur	-5228
▁Dar	-5229
▁Ell	-5230
▁Fre	-5231
▁Han	-5232
▁arc	-5233
▁bey	-5234
▁wed	-5235
iance	-5236
lines	-5237
▁1942	-5238
▁Greg	-5239
▁dial	-5240
▁unus	-5241
borough	-5242
unction	-5243
▁Friend	-5244
▁Gordon	-5245
▁actors	-5246
▁allows	-5247
▁bottom	-5248
▁degree	-5249
▁prefer	-5250
▁simple	-5251
▁Studios	-5252
▁express	-5253
▁Festival	-5254
▁computer	-5255
▁negative	-5256
▁collected	-5257
▁executive	-5258
▁Revolution	-5259
▁contributed	-5260
sey	-5261
▁61	-5262
▁73	-5263
▁95	-5264
ayer	-5265
kins	-5266
unte	-5267
▁NBA	-5268
▁Sus	-5269
▁hor	-5270
arian	-5271
iable	-5272
ridge	-5273
▁1918	-5274
▁Chel	-5275
▁Rail	-5276
▁Step	-5277
angers	-5278
▁Coast	-5279
▁Crazy	-5280
▁cited	-5281
▁craft	-5282
▁opera	-5283
▁overl	-5284
▁Turner	-5285
▁beyond	-5286
▁shaped	-5287
▁sports	-5288
▁Between	-5289
▁Premier	-5290
▁animals	-5291
ieutenant	-5292
▁entirely	-5293
▁improved	-5294
▁effective	-5295
▁fictional	-5296
▁subsequent	-5297
ez	-5298
arp	-5299
iot	-5300
▁62	-5301
▁97	-5302
▁800	-5303
▁Alf	-5304
▁Bru	-5305
▁Rel	-5306
▁mig	-5307
▁1968	-5308
▁1969	-5309
▁Prov	-5310
▁Turk	-5311
▁boat	-5312
▁gain	-5313
▁myth	-5314
ancing	-5315
perial	-5316
▁Boise	-5317
▁Lewis	-5318
▁Mario	-5319
▁Today	-5320
▁gives	-5321
▁train	-5322
agement	-5323
mission	-5324
▁Boston	-5325
▁Martin	-5326
▁visual	-5327
▁encoura	-5328
▁finding	-5329
▁medical	-5330
▁notable	-5331
▁recently	-5332
▁extensive	-5333
▁gradually	-5334
▁kilometres	-5335
eck	-5336
isy	-5337
rot	-5338
ánh	-5339
▁UN	-5340
aret	-5341
atus	-5342
chen	-5343
rine	-5344
ules	-5345
ycle	-5346
▁Cle	-5347
▁Cub	-5348
▁Fox	-5349
▁Rod	-5350
▁egg	-5351
rence	-5352
▁1975	-5353
▁Barb	-5354
▁Bart	-5355
▁Head	-5356
▁Jain	-5357
▁Juan	-5358
▁Kang	-5359
▁bass	-5360
▁glob	-5361
▁mush	-5362
▁sail	-5363
iences	-5364
lywood	-5365
▁Crown	-5366
▁Stone	-5367
▁chair	-5368
▁dates	-5369
▁floor	-5370
▁occas	-5371
▁Bridge	-5372
▁Daniel	-5373
▁People	-5374
▁System	-5375
▁finals	-5376
▁severe	-5377
▁stages	-5378
▁survey	-5379
▁Russian	-5380
▁serving	-5381
▁antimony	-5382
▁expanded	-5383
▁programs	-5384
▁secondary	-5385
eda	-5386
eed	-5387
lee	-5388
opp	-5389
▁72	-5390
▁85	-5391
itan	-5392
outs	-5393
yson	-5394
▁Aer	-5395
▁Igu	-5396
▁bow	-5397
▁bul	-5398
▁unf	-5399
ansas	-5400
usted	-5401
▁1965	-5402
▁1974	-5403
▁Belg	-5404
▁Upon	-5405
▁chur	-5406
▁join	-5407
illing	-5408
▁Evita	-5409
▁arran	-5410
▁comes	-5411
▁finds	-5412
▁green	-5413
▁items	-5414
iations	-5415
▁exclus	-5416
ographic	-5417
▁Magazine	-5418
▁occupied	-5419
▁centuries	-5420
▁composition	-5421
set	-5422
▁81	-5423
erts	-5424
ompl	-5425
thes	-5426
uate	-5427
▁Gab	-5428
▁Jac	-5429
▁Jud	-5430
▁Men	-5431
ecess	-5432
ublin	-5433
▁Band	-5434
▁Isab	-5435
▁calc	-5436
▁sole	-5437
▁Khánh	-5438
▁MacLe	-5439
▁daily	-5440
▁faith	-5441
▁naval	-5442
▁negot	-5443
▁deaths	-5444
▁losses	-5445
▁slowly	-5446
izations	-5447
▁decades	-5448
▁Commander	-5449
▁treatment	-5450
▁experienced	-5451
▁commissioned	-5452
▁independence	-5453
▁successfully	-5454
amy	-5455
win	-5456
▁71	-5457
▁94	-5458
▁CD	-5459
▁164	-5460
▁Far	-5461
▁Liu	-5462
▁aer	-5463
▁eth	-5464
istan	-5465
▁Rome	-5466
▁cool	-5467
▁didn	-5468
▁flag	-5469
▁trip	-5470
▁Jamal	-5471
▁Songs	-5472
▁benef	-5473
▁Avenue	-5474
▁policy	-5475
▁Project	-5476
▁captain	-5477
▁engaged	-5478
▁sentence	-5479
▁personnel	-5480
▁purchased	-5481
ava	-5482
▁GA	-5483
aire	-5484
anda	-5485
anny	-5486
▁160	-5487
▁Mot	-5488
▁Rol	-5489
▁Sha	-5490
▁eas	-5491
▁1946	-5492
▁Pers	-5493
▁coal	-5494
▁Brian	-5495
▁Chart	-5496
▁Iguan	-5497
▁beach	-5498
▁begun	-5499
▁fresh	-5500
▁labor	-5501
ategory	-5502
▁Dublin	-5503
▁Temple	-5504
▁chorus	-5505
▁elimin	-5506
▁propos	-5507
▁street	-5508
▁supply	-5509
▁Science	-5510
▁accompl	-5511
▁briefly	-5512
▁nothing	-5513
▁reasons	-5514
▁District	-5515
▁Tennyson	-5516
▁concrete	-5517
▁declined	-5518
▁protagon	-5519
▁southwest	-5520
▁worldwide	-5521
▁Throughout	-5522
ela	-5523
aton	-5524
town	-5525
▁Ing	-5526
▁Mov	-5527
▁gas	-5528
▁nor	-5529
ingly	-5530
pring	-5531
uting	-5532
▁Also	-5533
▁Bull	-5534
▁Down	-5535
▁Leon	-5536
▁summ	-5537
▁Track	-5538
▁drawn	-5539
▁moves	-5540
▁roads	-5541
▁theat	-5542
iration	-5543
utation	-5544
▁Simone	-5545
▁escape	-5546
▁normal	-5547
▁leaders	-5548
▁Governor	-5549
▁incident	-5550
▁platform	-5551
▁importance	-5552
bo	-5553
erc	-5554
rug	-5555
amin	-5556
born	-5557
elli	-5558
onic	-5559
rupt	-5560
▁Jes	-5561
▁Ray	-5562
▁flu	-5563
▁pet	-5564
▁rac	-5565
quake	-5566
▁1919	-5567
▁1936	-5568
▁1952	-5569
▁1966	-5570
▁Area	-5571
▁Baby	-5572
▁Bern	-5573
▁Team	-5574
▁firm	-5575
▁isol	-5576
▁plum	-5577
▁tall	-5578
▁tend	-5579
▁unsu	-5580
ooking	-5581
▁Brook	-5582
▁Maria	-5583
▁dance	-5584
▁delay	-5585
▁guard	-5586
▁hired	-5587
▁spons	-5588
respond	-5589
▁Family	-5590
▁decade	-5591
▁senior	-5592
▁MacLeod	-5593
▁arrival	-5594
▁billion	-5595
▁chapter	-5596
▁enjoyed	-5597
▁longest	-5598
▁witness	-5599
▁paintings	-5600
▁responded	-5601
▁Production	-5602
▁foundation	-5603
▁Development	-5604
▁accompanied	-5605
▁possibility	-5606
▁participated	-5607
30	-5608
BS	-5609
ls	-5610
ía	-5611
ān	-5612
osa	-5613
rons	-5614
▁110	-5615
▁177	-5616
▁Ali	-5617
▁Dev	-5618
▁Row	-5619
▁Rox	-5620
hetic	-5621
ichol	-5622
isers	-5623
▁Five	-5624
▁Marl	-5625
▁Ulys	-5626
▁jack	-5627
▁ring	-5628
▁subs	-5629
▁vert	-5630
▁Admir	-5631
▁Board	-5632
▁Dream	-5633
▁heard	-5634
▁squad	-5635
▁stret	-5636
▁Albert	-5637
▁Chains	-5638
▁Summer	-5639
▁dollar	-5640
▁oldest	-5641
▁Ulysses	-5642
▁paralle	-5643
▁roughly	-5644
▁setting	-5645
ifications	-5646
▁agreement	-5647
▁developing	-5648
OC	-5649
oe	-5650
▁i	-5651
ano	-5652
pty	-5653
▁77	-5654
imet	-5655
▁Bor	-5656
▁Int	-5657
▁Tim	-5658
▁dog	-5659
▁emp	-5660
▁pal	-5661
chest	-5662
essed	-5663
▁1973	-5664
▁Bond	-5665
▁Wall	-5666
▁remn	-5667
▁Const	-5668
▁Dougl	-5669
▁Phill	-5670
▁calls	-5671
▁decre	-5672
▁towns	-5673
espread	-5674
▁adding	-5675
▁choice	-5676
▁lasted	-5677
▁poetry	-5678
▁symbol	-5679
▁Anthony	-5680
▁Instead	-5681
▁Turkish	-5682
▁transit	-5683
▁Francisc	-5684
▁accident	-5685
▁athletes	-5686
▁consists	-5687
▁violence	-5688
▁dominated	-5689
▁existence	-5690
▁regarding	-5691
▁technology	-5692
▁combination	-5693
▁populations	-5694
war	-5695
▁59	-5696
▁Sk	-5697
aver	-5698
come	-5699
rant	-5700
usal	-5701
▁Ode	-5702
▁ign	-5703
itors	-5704
▁1967	-5705
▁Braz	-5706
▁Conn	-5707
▁door	-5708
▁note	-5709
▁seat	-5710
▁trav	-5711
▁Carib	-5712
▁Radio	-5713
▁acres	-5714
▁altar	-5715
▁clubs	-5716
▁comic	-5717
ressive	-5718
ructure	-5719
▁Bishop	-5720
▁assass	-5721
▁fellow	-5722
▁reserv	-5723
▁submar	-5724
▁undert	-5725
▁Hornung	-5726
▁Theatre	-5727
▁applied	-5728
▁closely	-5729
▁college	-5730
▁contrib	-5731
▁filming	-5732
▁habitat	-5733
▁existing	-5734
▁weakened	-5735
▁Anonymous	-5736
▁committee	-5737
▁unsuccess	-5738
▁performing	-5739
▁association	-5740
▁competitions	-5741
isf	-5742
▁66	-5743
▁98	-5744
▁Bi	-5745
▁ps	-5746
agle	-5747
agre	-5748
vens	-5749
▁175	-5750
▁AML	-5751
iling	-5752
iston	-5753
▁1914	-5754
▁Kenn	-5755
▁Life	-5756
▁Marc	-5757
▁roof	-5758
▁trou	-5759
▁Aston	-5760
▁pilot	-5761
▁tells	-5762
▁truth	-5763
▁appeal	-5764
▁serves	-5765
▁Caribbe	-5766
▁capable	-5767
▁correct	-5768
▁derived	-5769
▁descend	-5770
▁details	-5771
▁fashion	-5772
▁greatly	-5773
▁learned	-5774
▁neither	-5775
▁perhaps	-5776
▁purpose	-5777
▁reconst	-5778
▁Mountain	-5779
▁ceremony	-5780
▁distingu	-5781
▁painting	-5782
▁provides	-5783
▁substant	-5784
▁reinforce	-5785
▁battalions	-5786
▁correspond	-5787
▁opportunity	-5788
▁occasionally	-5789
▁administration	-5790
▁archaeological	-5791
OT	-5792
ona	-5793
var	-5794
▁Oh	-5795
burg	-5796
rait	-5797
▁Hon	-5798
▁Inc	-5799
▁hyp	-5800
▁som	-5801
▁Dota	-5802
▁Stew	-5803
▁neck	-5804
▁ones	-5805
▁skin	-5806
▁sort	-5807
▁Broad	-5808
▁thing	-5809
ountain	-5810
▁Archae	-5811
▁basket	-5812
▁bought	-5813
▁editor	-5814
▁expans	-5815
▁filled	-5816
▁headed	-5817
entially	-5818
▁Chelsea	-5819
▁Douglas	-5820
▁innings	-5821
▁invited	-5822
▁churches	-5823
▁speaking	-5824
▁supposed	-5825
▁vehicles	-5826
▁Caribbean	-5827
▁encounter	-5828
▁household	-5829
▁receiving	-5830
▁storyline	-5831
▁technique	-5832
▁dissipated	-5833
▁protection	-5834
▁sufficient	-5835
GN	-5836
RE	-5837
VN	-5838
la	-5839
agn	-5840
inj	-5841
uri	-5842
▁eu	-5843
abil	-5844
iece	-5845
oral	-5846
pton	-5847
▁Det	-5848
▁ERA	-5849
▁Jay	-5850
▁Low	-5851
▁Mel	-5852
▁Vol	-5853
▁aim	-5854
▁cit	-5855
▁cra	-5856
▁hat	-5857
▁seg	-5858
idden	-5859
ropri	-5860
▁1945	-5861
▁1971	-5862
▁Asia	-5863
▁What	-5864
▁acid	-5865
▁crop	-5866
▁drew	-5867
▁evac	-5868
▁goes	-5869
▁About	-5870
▁Maeda	-5871
▁Perry	-5872
▁drama	-5873
▁Freder	-5874
▁Hibari	-5875
▁astron	-5876
▁motion	-5877
▁viewed	-5878
▁islands	-5879
▁massive	-5880
▁receive	-5881
▁stopped	-5882
▁typical	-5883
▁Cardinal	-5884
▁Georgian	-5885
▁anything	-5886
▁survived	-5887
▁southeast	-5888
▁Lieutenant	-5889
▁classified	-5890
▁widespread	-5891
▁Constantine	-5892
lik	-5893
ola	-5894
tty	-5895
▁Ré	-5896
▁Ye	-5897
apes	-5898
iege	-5899
opes	-5900
rist	-5901
ruli	-5902
▁176	-5903
▁250	-5904
▁Age	-5905
▁Hin	-5906
▁Kil	-5907
▁MTV	-5908
▁Rio	-5909
▁Run	-5910
▁cho	-5911
▁opt	-5912
▁rob	-5913
▁why	-5914
acity	-5915
anned	-5916
ilton	-5917
▁1982	-5918
▁Hard	-5919
▁Wind	-5920
▁fuel	-5921
▁load	-5922
▁soft	-5923
▁subt	-5924
glades	-5925
ibrary	-5926
ighter	-5927
iously	-5928
▁Princ	-5929
▁Qedar	-5930
▁Simon	-5931
▁initi	-5932
▁Golden	-5933
▁Romani	-5934
▁safety	-5935
▁shared	-5936
▁trying	-5937
▁Fantasy	-5938
▁authors	-5939
▁digital	-5940
▁flights	-5941
▁missing	-5942
▁acquired	-5943
▁district	-5944
▁repeated	-5945
▁settlers	-5946
▁converted	-5947
cer	-5948
vis	-5949
iful	-5950
mann	-5951
reme	-5952
rier	-5953
▁Gil	-5954
▁Moz	-5955
▁cab	-5956
▁dub	-5957
▁ice	-5958
▁lin	-5959
idges	-5960
▁1913	-5961
▁1916	-5962
▁1956	-5963
▁1976	-5964
▁Gang	-5965
▁Gram	-5966
▁Holy	-5967
▁Oslo	-5968
▁Patt	-5969
▁Surv	-5970
▁rebu	-5971
▁rich	-5972
ilding	-5973
ivered	-5974
▁Haiti	-5975
▁Jones	-5976
▁Phoen	-5977
▁Venus	-5978
▁exact	-5979
▁glass	-5980
inosaur	-5981
issance	-5982
stances	-5983
▁Brazil	-5984
▁finish	-5985
▁legend	-5986
▁routes	-5987
▁Shortly	-5988
▁Stadium	-5989
▁channel	-5990
▁focused	-5991
▁funding	-5992
▁holding	-5993
▁opinion	-5994
▁spacing	-5995
▁watched	-5996
▁wedding	-5997
▁arranged	-5998
▁baseball	-5999
▁depicted	-6000
▁planning	-6001
▁Iguanodon	-6002
▁locations	-6003
▁permanent	-6004
▁succeeded	-6005
▁atmosphere	-6006
▁experiment	-6007
▁instrument	-6008
oba	-6009
anth	-6010
▁112	-6011
▁Fel	-6012
▁Gra	-6013
▁Kat	-6014
▁Mah	-6015
▁mut	-6016
▁rif	-6017
apers	-6018
▁1943	-6019
▁Arts	-6020
▁Fire	-6021
▁Lenn	-6022
▁bowl	-6023
▁knew	-6024
▁mort	-6025
▁pack	-6026
▁rose	-6027
▁wick	-6028
▁table	-6029
▁urban	-6030
▁Allied	-6031
▁assemb	-6032
▁chance	-6033
▁overse	-6034
▁Similar	-6035
▁charter	-6036
▁creator	-6037
▁decline	-6038
▁defined	-6039
▁penalty	-6040
▁protect	-6041
▁reality	-6042
▁credited	-6043
▁resident	-6044
▁Secretary	-6045
▁providing	-6046
▁earthquake	-6047
▁revolution	-6048
LI	-6049
ét	-6050
evo	-6051
▁87	-6052
pass	-6053
▁Abb	-6054
▁Bul	-6055
▁IGN	-6056
▁rub	-6057
▁sun	-6058
▁1963	-6059
▁Hell	-6060
▁Snow	-6061
▁laws	-6062
▁tied	-6063
▁ways	-6064
▁wins	-6065
▁Gully	-6066
▁Hindu	-6067
▁Homer	-6068
▁heads	-6069
▁moder	-6070
▁pregn	-6071
uration	-6072
▁dating	-6073
▁explos	-6074
▁Chronic	-6075
▁Rangers	-6076
▁Stevens	-6077
▁airport	-6078
▁renamed	-6079
formation	-6080
▁Morrison	-6081
▁download	-6082
▁supplies	-6083
▁delivered	-6084
▁separated	-6085
▁technical	-6086
▁thousands	-6087
▁Everglades	-6088
▁Additionally	-6089
SB	-6090
gé	-6091
hat	-6092
min	-6093
ube	-6094
ador	-6095
crib	-6096
ears	-6097
okes	-6098
▁Top	-6099
▁UTC	-6100
▁dry	-6101
▁enl	-6102
▁gal	-6103
▁san	-6104
attle	-6105
▁Truj	-6106
▁eyes	-6107
▁fair	-6108
essing	-6109
ipping	-6110
issipp	-6111
▁Sound	-6112
▁rural	-6113
ivalent	-6114
▁Arthur	-6115
▁Office	-6116
▁Sunday	-6117
▁Walter	-6118
▁colour	-6119
▁courts	-6120
▁powers	-6121
▁regime	-6122
▁secure	-6123
▁select	-6124
▁surviv	-6125
▁Friends	-6126
▁emperor	-6127
▁journey	-6128
▁turning	-6129
▁Bradford	-6130
▁Columbia	-6131
▁indicate	-6132
▁teaching	-6133
▁Alexander	-6134
▁Committee	-6135
▁Hollywood	-6136
▁certified	-6137
▁commanded	-6138
▁remainder	-6139
▁Mississipp	-6140
▁assistance	-6141
▁consisting	-6142
▁opposition	-6143
▁Australians	-6144
oh	-6145
▁Pu	-6146
aked	-6147
ardo	-6148
rell	-6149
▁Cop	-6150
▁Mul	-6151
▁Ron	-6152
▁Tel	-6153
▁lit	-6154
▁lov	-6155
▁pup	-6156
▁sud	-6157
erted	-6158
opher	-6159
▁1953	-6160
▁1978	-6161
▁card	-6162
▁drug	-6163
▁harm	-6164
▁impr	-6165
estone	-6166
▁aware	-6167
▁camps	-6168
▁hydro	-6169
▁noisy	-6170
▁quite	-6171
▁turns	-6172
▁views	-6173
▁Democr	-6174
▁Marine	-6175
▁Native	-6176
▁occurs	-6177
▁valley	-6178
▁Montana	-6179
▁address	-6180
▁disturb	-6181
▁economy	-6182
▁Critical	-6183
▁Croatian	-6184
▁Director	-6185
▁Maryland	-6186
▁Trujillo	-6187
▁attached	-6188
▁highlight	-6189
▁surrender	-6190
▁references	-6191
▁establishment	-6192
dal	-6193
rin	-6194
uma	-6195
▁ML	-6196
nest	-6197
ture	-6198
▁Dom	-6199
▁Exp	-6200
▁Mid	-6201
▁Sav	-6202
▁fan	-6203
▁vic	-6204
agues	-6205
icted	-6206
ients	-6207
othes	-6208
▁Alan	-6209
▁Fish	-6210
▁Stef	-6211
▁pros	-6212
▁puzz	-6213
ewhere	-6214
itsune	-6215
▁Anton	-6216
▁Roxas	-6217
▁immig	-6218
▁leads	-6219
▁store	-6220
ception	-6221
entions	-6222
▁Master	-6223
▁branch	-6224
▁circum	-6225
▁denied	-6226
▁leaves	-6227
▁resist	-6228
▁Charlie	-6229
▁Stephen	-6230
▁adapted	-6231
▁methods	-6232
▁monarch	-6233
▁replace	-6234
▁studied	-6235
▁Engineer	-6236
▁interior	-6237
▁missions	-6238
▁shooting	-6239
▁finishing	-6240
▁portrayed	-6241
▁producing	-6242
▁successor	-6243
▁reputation	-6244
▁Mississippi	-6245
▁distribution	-6246
aka	-6247
bur	-6248
▁69	-6249
▁Di	-6250
real	-6251
rien	-6252
▁Edu	-6253
▁Hug	-6254
▁NBC	-6255
▁Sap	-6256
▁lic	-6257
▁obt	-6258
▁upd	-6259
break	-6260
onder	-6261
senal	-6262
▁1915	-6263
▁Flow	-6264
▁baby	-6265
▁lane	-6266
▁prey	-6267
▁Plunk	-6268
▁Press	-6269
▁crime	-6270
▁entry	-6271
▁motor	-6272
▁worst	-6273
▁worth	-6274
rations	-6275
▁Howard	-6276
▁Samuel	-6277
▁Within	-6278
▁franch	-6279
▁window	-6280
▁getting	-6281
▁offense	-6282
▁entering	-6283
▁gameplay	-6284
▁maintain	-6285
▁politics	-6286
▁Recording	-6287
▁dismissed	-6288
▁protected	-6289
▁Activision	-6290
▁intelligence	-6291
▁characteristics	-6292
kh	-6293
ni	-6294
ns	-6295
aug	-6296
▁Wy	-6297
▁ru	-6298
elve	-6299
orer	-6300
otes	-6301
▁DNA	-6302
▁Kel	-6303
▁Loc	-6304
▁cry	-6305
▁die	-6306
▁von	-6307
acent	-6308
amber	-6309
ender	-6310
inals	-6311
▁Eliz	-6312
▁shel	-6313
▁tell	-6314
▁tomb	-6315
ctions	-6316
orters	-6317
▁Marsh	-6318
▁Ridge	-6319
▁basin	-6320
▁crown	-6321
▁exerc	-6322
▁holds	-6323
▁joint	-6324
▁knots	-6325
▁Nether	-6326
▁charts	-6327
▁noting	-6328
▁novels	-6329
▁resour	-6330
▁retire	-6331
▁stones	-6332
▁Calvert	-6333
▁charges	-6334
▁classes	-6335
▁dollars	-6336
▁Isabella	-6337
▁capacity	-6338
▁electric	-6339
▁historic	-6340
▁monument	-6341
▁mushroom	-6342
▁discussed	-6343
▁philosoph	-6344
▁attributed	-6345
▁interested	-6346
▁introduction	-6347
aws	-6348
gie	-6349
▁74	-6350
▁79	-6351
▁91	-6352
▁Ts	-6353
osis	-6354
wise	-6355
▁Bos	-6356
▁Cam	-6357
▁fer	-6358
▁sym	-6359
▁van	-6360
ajevo	-6361
eenth	-6362
itage	-6363
itled	-6364
osure	-6365
▁1890	-6366
▁1917	-6367
▁1948	-6368
▁Lisa	-6369
▁Pope	-6370
▁Trib	-6371
▁Walk	-6372
▁Yank	-6373
▁vary	-6374
▁Danny	-6375
▁agent	-6376
▁cinem	-6377
▁pitch	-6378
▁pound	-6379
▁rhyth	-6380
▁ruled	-6381
▁rules	-6382
▁solid	-6383
▁Jersey	-6384
▁Resear	-6385
▁Strand	-6386
▁Weekly	-6387
▁chapel	-6388
▁fields	-6389
▁offers	-6390
▁sector	-6391
▁tribes	-6392
▁vision	-6393
angerous	-6394
▁coastal	-6395
▁contest	-6396
▁younger	-6397
▁Industry	-6398
▁Sarajevo	-6399
▁accounts	-6400
▁colonial	-6401
▁medieval	-6402
▁appearing	-6403
▁predecess	-6404
▁publisher	-6405
▁statement	-6406
▁describing	-6407
▁generation	-6408
ef	-6409
gra	-6410
▁88	-6411
▁Sa	-6412
bles	-6413
rets	-6414
▁Jif	-6415
▁Sor	-6416
▁unn	-6417
ateur	-6418
iders	-6419
ivals	-6420
water	-6421
▁1951	-6422
▁1979	-6423
▁Here	-6424
▁Wars	-6425
▁arts	-6426
▁bond	-6427
▁hope	-6428
▁soil	-6429
▁zone	-6430
engers	-6431
intend	-6432
offman	-6433
▁Campb	-6434
▁Daily	-6435
▁Organ	-6436
▁apart	-6437
▁basic	-6438
▁europ	-6439
▁inner	-6440
▁kings	-6441
▁ninth	-6442
▁releg	-6443
▁caught	-6444
▁desire	-6445
▁manner	-6446
▁plants	-6447
▁rarely	-6448
▁Destiny	-6449
▁article	-6450
▁forests	-6451
▁someone	-6452
▁synthes	-6453
▁Victoria	-6454
▁Yankovic	-6455
▁instruct	-6456
▁Frederick	-6457
▁discovery	-6458
▁emotional	-6459
▁exception	-6460
▁difficulty	-6461
▁everything	-6462
▁restaurant	-6463
▁recognition	-6464
▁considerable	-6465
20	-6466
▁ha	-6467
▁ur	-6468
▁121	-6469
▁Joe	-6470
▁Lee	-6471
▁Rem	-6472
▁nob	-6473
abeth	-6474
ables	-6475
allow	-6476
ician	-6477
union	-6478
using	-6479
▁1954	-6480
▁1961	-6481
▁Chen	-6482
▁Fair	-6483
▁Init	-6484
▁cold	-6485
▁gall	-6486
▁hill	-6487
▁mine	-6488
aments	-6489
graded	-6490
igades	-6491
ultane	-6492
▁Elect	-6493
▁hotel	-6494
▁munic	-6495
▁shore	-6496
▁Around	-6497
▁Mozamb	-6498
▁Somali	-6499
▁landed	-6500
▁settle	-6501
▁sudden	-6502
▁taught	-6503
▁thirty	-6504
▁wealth	-6505
▁wooden	-6506
▁Rolling	-6507
▁evening	-6508
▁volunte	-6509
▁worship	-6510
▁Clarkson	-6511
▁Transport	-6512
▁opponents	-6513
▁Television	-6514
▁nomination	-6515
▁involvement	-6516
▁replacement	-6517
▁specifically	-6518
AC	-6519
lan	-6520
▁99	-6521
▁AR	-6522
▁DA	-6523
▁Si	-6524
▁ju	-6525
aska	-6526
avia	-6527
eper	-6528
iary	-6529
leep	-6530
yles	-6531
▁Ash	-6532
▁Lev	-6533
▁Yan	-6534
▁bal	-6535
▁tal	-6536
▁tie	-6537
Brien	-6538
eless	-6539
istol	-6540
orous	-6541
psons	-6542
reets	-6543
ropol	-6544
verse	-6545
▁1937	-6546
▁Bono	-6547
▁Duke	-6548
▁Fame	-6549
▁Skye	-6550
▁fish	-6551
▁jazz	-6552
▁leuk	-6553
atures	-6554
ceived	-6555
ingale	-6556
inking	-6557
ranean	-6558
usalem	-6559
▁Jifna	-6560
▁Lords	-6561
▁Order	-6562
▁Santa	-6563
▁Wilde	-6564
▁accur	-6565
▁poems	-6566
▁split	-6567
▁veget	-6568
▁Castle	-6569
▁Modern	-6570
▁Muslim	-6571
▁Spring	-6572
▁carbon	-6573
▁divine	-6574
▁fungus	-6575
▁picked	-6576
▁stream	-6577
▁Colonel	-6578
▁Roberts	-6579
▁Singles	-6580
▁consequ	-6581
▁secured	-6582
▁Simpsons	-6583
▁believes	-6584
▁Francisco	-6585
▁Jerusalem	-6586
▁industrial	-6587
▁communities	-6588
▁controversy	-6589
▁recommended	-6590
▁intersection	-6591
va	-6592
agu	-6593
ban	-6594
ipe	-6595
▁ic	-6596
rast	-6597
rows	-6598
▁Cab	-6599
▁Dur	-6600
▁Jun	-6601
▁Nap	-6602
▁Rif	-6603
▁Win	-6604
▁dim	-6605
▁fit	-6606
▁sed	-6607
▁1955	-6608
▁Cory	-6609
▁Nick	-6610
▁Plot	-6611
▁Shak	-6612
▁dock	-6613
▁hall	-6614
▁legs	-6615
▁soul	-6616
▁vide	-6617
ussion	-6618
▁Adams	-6619
▁Human	-6620
▁Prime	-6621
▁absor	-6622
▁faces	-6623
▁wrong	-6624
iveness	-6625
theless	-6626
▁Carter	-6627
▁depend	-6628
▁launch	-6629
▁missed	-6630
▁convers	-6631
▁drawing	-6632
▁scholar	-6633
▁signing	-6634
▁strateg	-6635
▁whereas	-6636
▁Hamilton	-6637
▁Military	-6638
▁Olympics	-6639
▁concerns	-6640
▁Argentina	-6641
▁extremely	-6642
▁principal	-6643
▁specimens	-6644
▁standards	-6645
▁leadership	-6646
▁Independent	-6647
▁organizations	-6648
ext	-6649
iar	-6650
rec	-6651
▁89	-6652
▁AD	-6653
adow	-6654
cape	-6655
iday	-6656
imal	-6657
▁Anc	-6658
▁Pan	-6659
▁Pul	-6660
▁bes	-6661
▁ble	-6662
▁ske	-6663
onica	-6664
▁1900	-6665
▁1958	-6666
▁Earl	-6667
▁Sand	-6668
▁grav	-6669
▁warm	-6670
wealth	-6671
▁Banai	-6672
▁Beach	-6673
▁Power	-6674
▁demol	-6675
▁indig	-6676
▁psych	-6677
▁teeth	-6678
▁tries	-6679
▁youth	-6680
pective	-6681
▁Forces	-6682
▁muscar	-6683
▁speech	-6684
▁treaty	-6685
iversary	-6686
▁Writing	-6687
▁emerged	-6688
▁existed	-6689
▁parties	-6690
▁session	-6691
▁showing	-6692
▁chemical	-6693
▁diameter	-6694
▁europium	-6695
▁minister	-6696
▁approached	-6697
▁conference	-6698
▁connection	-6699
▁surrounded	-6700
▁threatened	-6701
▁distributed	-6702
▁relationships	-6703
CA	-6704
amm	-6705
bie	-6706
cho	-6707
eor	-6708
oca	-6709
uda	-6710
utt	-6711
▁CE	-6712
▁IV	-6713
▁WW	-6714
▁ib	-6715
edom	-6716
▁fal	-6717
▁fle	-6718
▁lbw	-6719
aurus	-6720
inger	-6721
itals	-6722
organ	-6723
point	-6724
▁1949	-6725
▁1977	-6726
▁Bank	-6727
▁Disc	-6728
▁Hung	-6729
▁Iron	-6730
▁Ryan	-6731
▁cong	-6732
▁corp	-6733
▁mart	-6734
▁page	-6735
▁rect	-6736
▁stem	-6737
▁Chief	-6738
▁Point	-6739
▁Roger	-6740
▁alien	-6741
▁citiz	-6742
▁decor	-6743
▁hoped	-6744
▁oppos	-6745
▁overw	-6746
▁shark	-6747
▁wants	-6748
▁Lennon	-6749
▁Norman	-6750
▁bright	-6751
▁facing	-6752
▁firing	-6753
▁option	-6754
▁seeing	-6755
▁crossed	-6756
▁partial	-6757
▁pointed	-6758
▁railway	-6759
▁ratings	-6760
▁unusual	-6761
▁admitted	-6762
▁favorite	-6763
▁isolated	-6764
▁expansion	-6765
▁immediate	-6766
▁intention	-6767
▁regularly	-6768
▁Depression	-6769
▁department	-6770
▁expedition	-6771
▁historians	-6772
▁alternative	-6773
▁documentary	-6774
▁constitution	-6775
▁institutions	-6776
ba	-6777
aya	-6778
nes	-6779
sch	-6780
zen	-6781
▁07	-6782
eman	-6783
emia	-6784
iour	-6785
ooth	-6786
spec	-6787
usad	-6788
uses	-6789
wich	-6790
ívar	-6791
▁Ald	-6792
▁flo	-6793
▁lap	-6794
ledon	-6795
ombat	-6796
▁Desc	-6797
▁Fern	-6798
▁Fras	-6799
▁sulf	-6800
formed	-6801
▁Hergé	-6802
▁marks	-6803
▁owner	-6804
▁recre	-6805
▁watch	-6806
ossible	-6807
▁Kilmer	-6808
▁Person	-6809
▁Rhodes	-6810
▁Territ	-6811
▁Unlike	-6812
▁ancest	-6813
▁consum	-6814
▁duties	-6815
▁eighth	-6816
▁gather	-6817
▁inland	-6818
▁sequel	-6819
▁Bolívar	-6820
▁Goffman	-6821
▁Janeiro	-6822
▁Saprang	-6823
▁assumed	-6824
▁inhabit	-6825
▁message	-6826
▁treated	-6827
▁breaking	-6828
▁bringing	-6829
▁champion	-6830
▁changing	-6831
▁examples	-6832
▁literary	-6833
▁protests	-6834
▁regional	-6835
▁reviewer	-6836
▁romantic	-6837
▁strongly	-6838
▁franchise	-6839
▁languages	-6840
▁watershed	-6841
▁destroyers	-6842
▁anniversary	-6843
▁designation	-6844
▁protagonist	-6845
sta	-6846
▁06	-6847
▁63	-6848
▁93	-6849
▁PA	-6850
ekān	-6851
erog	-6852
eton	-6853
inet	-6854
nell	-6855
otic	-6856
▁BCE	-6857
▁Bal	-6858
▁Guy	-6859
▁Kit	-6860
ockey	-6861
rates	-6862
worth	-6863
▁1910	-6864
▁1983	-6865
▁Ball	-6866
▁Base	-6867
▁Bert	-6868
▁Jean	-6869
▁Lanc	-6870
▁Mand	-6871
▁Pine	-6872
▁Test	-6873
▁Wimb	-6874
▁aged	-6875
▁coup	-6876
▁eggs	-6877
▁grey	-6878
▁outf	-6879
encies	-6880
rapped	-6881
▁Burns	-6882
▁Color	-6883
▁Stock	-6884
▁Story	-6885
▁Tower	-6886
▁crest	-6887
▁genre	-6888
▁meets	-6889
istered	-6890
ogether	-6891
▁Gerard	-6892
▁Hearts	-6893
▁Lawton	-6894
▁Square	-6895
▁easily	-6896
▁rescue	-6897
▁winner	-6898
▁Georgia	-6899
▁Journal	-6900
▁Station	-6901
▁airline	-6902
▁improve	-6903
▁orchest	-6904
▁retreat	-6905
▁stadium	-6906
▁wearing	-6907
▁Research	-6908
▁academic	-6909
▁approved	-6910
▁detailed	-6911
▁sections	-6912
▁specimen	-6913
▁Wimbledon	-6914
▁attracted	-6915
▁indicated	-6916
onnaissance	-6917
▁completion	-6918
▁engineering	-6919
aga	-6920
how	-6921
ois	-6922
osm	-6923
▁Xe	-6924
agas	-6925
know	-6926
lets	-6927
oked	-6928
ppet	-6929
▁Cru	-6930
▁Neb	-6931
▁Raj	-6932
▁bay	-6933
▁cul	-6934
▁lob	-6935
▁sam	-6936
range	-6937
▁Bass	-6938
▁Conc	-6939
▁Cook	-6940
▁Corn	-6941
▁Sher	-6942
▁Wolf	-6943
▁ethn	-6944
▁flat	-6945
▁pric	-6946
▁rhym	-6947
▁sell	-6948
▁shif	-6949
▁Offic	-6950
▁Third	-6951
▁catch	-6952
▁cloud	-6953
▁conqu	-6954
▁coord	-6955
▁depos	-6956
▁equal	-6957
▁happy	-6958
▁ocean	-6959
igation	-6960
▁acknow	-6961
▁looked	-6962
▁medium	-6963
▁preced	-6964
▁spaces	-6965
▁streak	-6966
▁Admiral	-6967
▁Somalia	-6968
▁accused	-6969
▁feeling	-6970
▁proport	-6971
▁reading	-6972
▁settled	-6973
▁Attorney	-6974
▁adjacent	-6975
▁civilian	-6976
▁starling	-6977
▁terminus	-6978
▁traveled	-6979
▁Cambridge	-6980
▁assistant	-6981
▁challenge	-6982
▁implement	-6983
▁practices	-6984
▁surviving	-6985
▁Richardson	-6986
▁attempting	-6987
▁encouraged	-6988
▁effectively	-6989
▁inspiration	-6990
▁interchange	-6991
▁territories	-6992
▁agricultural	-6993
hl	-6994
mel	-6995
▁05	-6996
▁Sb	-6997
▁et	-6998
dess	-6999
emet	-7000
heim	-7001
ifer	-7002
▁122	-7003
▁Bed	-7004
▁Hun	-7005
▁Lab	-7006
▁Now	-7007
▁Tam	-7008
▁orn	-7009
▁swe	-7010
▁vac	-7011
abled	-7012
aware	-7013
ennis	-7014
ewhat	-7015
going	-7016
ommod	-7017
▁1880	-7018
▁1909	-7019
▁Garc	-7020
▁Marg	-7021
▁Pass	-7022
▁anth	-7023
▁evil	-7024
▁hear	-7025
▁nick	-7026
▁none	-7027
▁tick	-7028
cation	-7029
itated	-7030
▁Every	-7031
▁Jesus	-7032
▁Keamy	-7033
▁armor	-7034
▁multi	-7035
▁plain	-7036
▁races	-7037
▁shots	-7038
▁sight	-7039
▁stead	-7040
attered	-7041
▁Kombat	-7042
▁Mortal	-7043
▁convoy	-7044
▁partly	-7045
▁patron	-7046
▁ritual	-7047
▁seemed	-7048
▁serial	-7049
▁stands	-7050
▁towers	-7051
▁videos	-7052
▁Aniston	-7053
▁Formula	-7054
▁chronic	-7055
▁extreme	-7056
▁painted	-7057
▁visible	-7058
▁accommod	-7059
▁brothers	-7060
▁challeng	-7061
▁identity	-7062
▁obtained	-7063
▁recalled	-7064
▁somewhat	-7065
▁candidate	-7066
▁compounds	-7067
▁recovered	-7068
▁possession	-7069
▁scientific	-7070
▁arrangement	-7071
▁Commonwealth	-7072
SA	-7073
ds	-7074
utz	-7075
▁08	-7076
▁58	-7077
espe	-7078
idae	-7079
isis	-7080
oven	-7081
▁FIA	-7082
▁Gun	-7083
▁Hor	-7084
▁Joy	-7085
▁Ton	-7086
▁bat	-7087
▁hip	-7088
achus	-7089
annah	-7090
icate	-7091
icity	-7092
igins	-7093
iques	-7094
▁1912	-7095
▁1931	-7096
▁1935	-7097
▁Bron	-7098
▁Owen	-7099
▁Type	-7100
▁acts	-7101
▁cens	-7102
▁exha	-7103
▁fled	-7104
▁hits	-7105
▁impl	-7106
▁raid	-7107
▁tone	-7108
roscop	-7109
▁Islam	-7110
▁absol	-7111
▁cycle	-7112
▁funds	-7113
▁gross	-7114
▁schem	-7115
▁teach	-7116
▁verse	-7117
entures	-7118
▁Arabic	-7119
▁Coryth	-7120
▁Design	-7121
▁Fraser	-7122
▁Poland	-7123
▁convin	-7124
▁custom	-7125
▁estate	-7126
▁hosted	-7127
▁linked	-7128
▁reduce	-7129
▁spirit	-7130
▁twelve	-7131
▁Germans	-7132
▁Islands	-7133
▁Marines	-7134
▁consult	-7135
▁footage	-7136
▁passage	-7137
▁proceed	-7138
▁theatre	-7139
stitution	-7140
▁Hospital	-7141
▁Johnston	-7142
▁relative	-7143
▁Elizabeth	-7144
▁Plunketts	-7145
▁preserved	-7146
▁sculpture	-7147
▁suffering	-7148
▁basketball	-7149
▁Corythosaurus	-7150
▁controversial	-7151
ait	-7152
oli	-7153
uts	-7154
▁68	-7155
▁86	-7156
▁DC	-7157
▁Wi	-7158
▁au	-7159
amic	-7160
amps	-7161
elin	-7162
illy	-7163
lete	-7164
olay	-7165
▁Div	-7166
▁Dyn	-7167
▁Gib	-7168
▁Tig	-7169
ensis	-7170
▁1932	-7171
▁Bark	-7172
▁Late	-7173
▁Prof	-7174
▁Rele	-7175
▁Your	-7176
▁cart	-7177
▁musc	-7178
▁shut	-7179
▁thin	-7180
▁wars	-7181
athers	-7182
bishop	-7183
▁Allah	-7184
▁Hotel	-7185
▁Palmy	-7186
▁alleg	-7187
▁inaug	-7188
▁moral	-7189
▁siege	-7190
▁steel	-7191
▁verte	-7192
espeare	-7193
ificial	-7194
intendo	-7195
▁adults	-7196
▁blocks	-7197
▁debate	-7198
▁divers	-7199
▁income	-7200
▁prohib	-7201
▁stayed	-7202
▁tailed	-7203
▁Protest	-7204
▁Special	-7205
▁context	-7206
erogative	-7207
▁Nintendo	-7208
▁composer	-7209
▁defended	-7210
▁equipped	-7211
▁learning	-7212
▁opposite	-7213
▁parallel	-7214
▁province	-7215
▁sessions	-7216
▁Peninsula	-7217
▁attacking	-7218
▁concerned	-7219
▁expensive	-7220
▁reviewers	-7221
▁continuing	-7222
▁understand	-7223
▁Marlborough	-7224
▁Shakespeare	-7225
▁circulation	-7226
▁destruction	-7227
▁incorporated	-7228
▁responsibility	-7229
MO	-7230
aku	-7231
nal	-7232
osl	-7233
rif	-7234
▁82	-7235
▁Ur	-7236
▁ow	-7237
aste	-7238
body	-7239
hews	-7240
▁Fei	-7241
▁Sem	-7242
▁map	-7243
arked	-7244
iplom	-7245
ithic	-7246
state	-7247
▁1911	-7248
▁1921	-7249
▁1929	-7250
▁Dark	-7251
▁Pict	-7252
▁Real	-7253
▁answ	-7254
▁gone	-7255
▁pool	-7256
▁repr	-7257
iminal	-7258
▁Geoff	-7259
▁Media	-7260
▁Space	-7261
▁Sweet	-7262
▁Techn	-7263
▁agree	-7264
▁limit	-7265
▁renew	-7266
▁strip	-7267
▁trick	-7268
▁voted	-7269
uscript	-7270
▁Flight	-7271
▁Palace	-7272
▁Pitman	-7273
▁elabor	-7274
▁lowest	-7275
▁patrol	-7276
▁pushed	-7277
▁rebels	-7278
▁Channel	-7279
▁Patrick	-7280
▁Stanley	-7281
▁driving	-7282
▁falling	-7283
▁kitsune	-7284
▁promote	-7285
▁reserve	-7286
▁victims	-7287
▁willing	-7288
▁Lawrence	-7289
▁crossing	-7290
▁governor	-7291
▁measures	-7292
▁meetings	-7293
▁remnants	-7294
▁songwrit	-7295
▁throwing	-7296
▁classical	-7297
▁musicians	-7298
▁occasions	-7299
▁initiative	-7300
▁passengers	-7301
▁Netherlands	-7302
▁Construction	-7303
▁observations	-7304
AT	-7305
uv	-7306
zi	-7307
hol	-7308
▁Ak	-7309
acle	-7310
alky	-7311
fare	-7312
onia	-7313
otal	-7314
pent	-7315
quez	-7316
yard	-7317
ymph	-7318
▁161	-7319
▁Hob	-7320
▁Our	-7321
▁Wic	-7322
▁obl	-7323
▁ray	-7324
▁rum	-7325
eline	-7326
ifies	-7327
otton	-7328
▁1938	-7329
▁1959	-7330
▁1962	-7331
▁Free	-7332
▁Link	-7333
▁Mega	-7334
▁Rain	-7335
▁diet	-7336
▁hang	-7337
▁prol	-7338
▁sees	-7339
▁ster	-7340
rating	-7341
▁Labor	-7342
▁Treat	-7343
▁brick	-7344
▁fixed	-7345
▁raise	-7346
emetery	-7347
vention	-7348
▁García	-7349
▁Korean	-7350
▁Player	-7351
▁Queens	-7352
▁global	-7353
▁praise	-7354
▁rhythm	-7355
▁Atlanta	-7356
▁Emperor	-7357
▁Stefani	-7358
▁acclaim	-7359
▁batsman	-7360
▁goddess	-7361
▁objects	-7362
▁pitcher	-7363
▁returns	-7364
▁vessels	-7365
oceratops	-7366
▁Cambodia	-7367
▁Guardian	-7368
▁Imperial	-7369
▁carrying	-7370
▁comments	-7371
▁defences	-7372
▁purchase	-7373
▁retained	-7374
▁superior	-7375
▁villages	-7376
▁biography	-7377
▁involving	-7378
▁equivalent	-7379
▁intensified	-7380
▁difficulties	-7381
▁representing	-7382
▁unsuccessful	-7383
don	-7384
mes	-7385
yer	-7386
▁67	-7387
▁AP	-7388
icop	-7389
wald	-7390
▁162	-7391
▁gro	-7392
▁hem	-7393
chang	-7394
icide	-7395
iform	-7396
overs	-7397
rator	-7398
ureau	-7399
▁Bang	-7400
▁Cult	-7401
▁Furt	-7402
▁Hind	-7403
▁Raff	-7404
▁blow	-7405
▁bone	-7406
▁fine	-7407
▁fold	-7408
▁pure	-7409
echism	-7410
▁Prior	-7411
▁amino	-7412
▁cloth	-7413
▁needs	-7414
▁tight	-7415
▁union	-7416
resents	-7417
species	-7418
terbury	-7419
▁Aerith	-7420
▁Grammy	-7421
▁camera	-7422
▁commit	-7423
▁covers	-7424
▁escort	-7425
▁online	-7426
▁voiced	-7427
▁Mediter	-7428
▁collaps	-7429
▁periods	-7430
▁reveals	-7431
▁Athletic	-7432
▁Phillies	-7433
▁concerts	-7434
▁exchange	-7435
▁internal	-7436
▁Palestine	-7437
▁accompany	-7438
▁behaviour	-7439
▁committed	-7440
▁defeating	-7441
▁divisions	-7442
▁narrative	-7443
▁preferred	-7444
▁resources	-7445
▁simultane	-7446
▁survivors	-7447
▁Canterbury	-7448
▁Enterprise	-7449
▁disappoint	-7450
▁influences	-7451
▁Mediterranean	-7452
ár	-7453
boy	-7454
▁09	-7455
burn	-7456
elle	-7457
graf	-7458
inje	-7459
iped	-7460
math	-7461
rene	-7462
rich	-7463
▁Hou	-7464
▁Ken	-7465
▁McG	-7466
▁Mir	-7467
▁USD	-7468
▁bor	-7469
after	-7470
▁Kann	-7471
▁Krak	-7472
▁Prog	-7473
▁deck	-7474
▁dens	-7475
▁else	-7476
▁exit	-7477
▁feed	-7478
urrent	-7479
▁Along	-7480
▁Front	-7481
▁Rugby	-7482
▁doesn	-7483
▁panel	-7484
▁rugby	-7485
ishment	-7486
vements	-7487
▁Mother	-7488
▁Sports	-7489
▁closer	-7490
▁pupils	-7491
▁refers	-7492
▁tribut	-7493
▁Fernand	-7494
▁Furtado	-7495
▁Raffles	-7496
▁absence	-7497
▁classic	-7498
▁cruiser	-7499
▁Colorado	-7500
▁Markgraf	-7501
▁arrested	-7502
▁astronom	-7503
▁covering	-7504
▁deployed	-7505
▁dialogue	-7506
▁feelings	-7507
▁formally	-7508
▁hundreds	-7509
▁normally	-7510
▁products	-7511
▁proposal	-7512
▁visitors	-7513
▁Cathedral	-7514
▁considers	-7515
▁followers	-7516
▁interpret	-7517
▁municipal	-7518
▁operating	-7519
▁criticised	-7520
▁represents	-7521
▁legislation	-7522
▁Championships	-7523
CC	-7524
OK	-7525
iy	-7526
ean	-7527
▁Ly	-7528
▁aw	-7529
ishn	-7530
rage	-7531
▁140	-7532
▁166	-7533
▁DAG	-7534
▁Hok	-7535
▁Hud	-7536
▁NHL	-7537
▁Nad	-7538
▁Nar	-7539
▁Roc	-7540
▁orb	-7541
ashed	-7542
hered	-7543
onomy	-7544
otype	-7545
ullen	-7546
▁Bath	-7547
▁Bell	-7548
▁Comb	-7549
▁Usta	-7550
▁deem	-7551
▁enth	-7552
▁fram	-7553
▁ille	-7554
▁outl	-7555
▁tank	-7556
▁tele	-7557
cribed	-7558
▁Satur	-7559
▁Valky	-7560
▁check	-7561
▁choir	-7562
▁devot	-7563
▁drums	-7564
▁liber	-7565
▁skull	-7566
▁surpr	-7567
▁Nichol	-7568
▁Sholay	-7569
▁ensure	-7570
▁extent	-7571
▁poorly	-7572
▁satisf	-7573
▁stable	-7574
▁forming	-7575
▁infrast	-7576
▁moments	-7577
▁trading	-7578
▁annually	-7579
▁appropri	-7580
▁displays	-7581
▁muscaria	-7582
▁overwhel	-7583
▁Dominican	-7584
▁stationed	-7585
▁submarine	-7586
▁biographer	-7587
▁convection	-7588
▁manuscript	-7589
▁prerogative	-7590
▁researchers	-7591
▁reconnaissance	-7592
▁reconstruction	-7593
DH	-7594
ogy	-7595
ori	-7596
zac	-7597
anti	-7598
life	-7599
niow	-7600
vati	-7601
▁Alb	-7602
▁Bat	-7603
▁Rom	-7604
▁Who	-7605
▁jun	-7606
▁loy	-7607
▁nav	-7608
▁phr	-7609
ateau	-7610
inian	-7611
rants	-7612
▁Cape	-7613
▁FIFA	-7614
▁Jenn	-7615
▁Show	-7616
▁belt	-7617
▁lose	-7618
▁obst	-7619
▁sunk	-7620
▁util	-7621
friend	-7622
ricted	-7623
▁Blood	-7624
▁abund	-7625
▁brand	-7626
▁clock	-7627
▁creek	-7628
▁divor	-7629
▁doubt	-7630
▁dream	-7631
▁emerg	-7632
▁frame	-7633
▁lists	-7634
▁orbit	-7635
▁saves	-7636
▁steam	-7637
▁wings	-7638
niowiec	-7639
▁Maggie	-7640
▁Record	-7641
▁driven	-7642
▁memory	-7643
▁posted	-7644
▁useful	-7645
entional	-7646
▁Mexican	-7647
▁bombard	-7648
▁dynasty	-7649
▁intense	-7650
▁streets	-7651
▁Richmond	-7652
▁dinosaur	-7653
▁dramatic	-7654
▁entitled	-7655
▁injuries	-7656
▁modified	-7657
▁purposes	-7658
▁withdrew	-7659
▁essential	-7660
▁extension	-7661
▁transition	-7662
▁influential	-7663
▁understanding	-7664
ng	-7665
ker	-7666
lie	-7667
oom	-7668
ugh	-7669
▁78	-7670
▁Sn	-7671
acks	-7672
andy	-7673
arth	-7674
hist	-7675
ilst	-7676
lock	-7677
rous	-7678
▁101	-7679
▁155	-7680
▁900	-7681
▁Ark	-7682
▁Bab	-7683
▁Bow	-7684
▁CBS	-7685
▁Ele	-7686
▁Mun	-7687
▁VII	-7688
▁ago	-7689
▁ash	-7690
▁bed	-7691
eared	-7692
inson	-7693
itzer	-7694
ugosl	-7695
▁1928	-7696
▁Benn	-7697
▁Mach	-7698
▁Rest	-7699
▁gard	-7700
▁loan	-7701
teenth	-7702
▁Found	-7703
▁Jacob	-7704
▁Moore	-7705
▁ammun	-7706
▁chess	-7707
▁persu	-7708
▁plane	-7709
▁rated	-7710
▁rates	-7711
▁ridge	-7712
▁saved	-7713
▁spoke	-7714
▁tests	-7715
▁trail	-7716
ekāntav	-7717
▁Barker	-7718
▁Norway	-7719
▁actual	-7720
▁burned	-7721
▁demand	-7722
▁diplom	-7723
▁excess	-7724
▁formal	-7725
▁listen	-7726
▁parish	-7727
restling	-7728
▁Federal	-7729
▁Israeli	-7730
▁Parvati	-7731
▁Réunion	-7732
▁crosses	-7733
▁engines	-7734
▁factors	-7735
▁helicop	-7736
▁jackrab	-7737
▁kingdom	-7738
▁picture	-7739
achusetts	-7740
criptions	-7741
▁Portugal	-7742
▁Township	-7743
▁chairman	-7744
▁exposure	-7745
▁happened	-7746
▁informed	-7747
▁restrict	-7748
▁severely	-7749
▁shipping	-7750
▁watching	-7751
▁writings	-7752
▁Education	-7753
▁generated	-7754
▁installed	-7755
▁interests	-7756
▁materials	-7757
▁otherwise	-7758
▁ammunition	-7759
▁apparently	-7760
▁journalist	-7761
▁originated	-7762
▁subspecies	-7763
▁suggesting	-7764
▁Massachusetts	-7765
▁circumstances	-7766
DS	-7767
oko	-7768
▁84	-7769
▁Dh	-7770
iang	-7771
oren	-7772
ryce	-7773
urse	-7774
▁Cec	-7775
▁Dig	-7776
▁Kim	-7777
▁Sab	-7778
▁See	-7779
▁Sid	-7780
▁ori	-7781
▁sky	-7782
acter	-7783
heera	-7784
inder	-7785
▁1927	-7786
▁Gary	-7787
▁Gwen	-7788
▁Hamp	-7789
▁Lang	-7790
▁Lith	-7791
▁Niel	-7792
▁Prom	-7793
▁RAAF	-7794
▁Roth	-7795
▁wine	-7796
forced	-7797
rorist	-7798
▁Baker	-7799
▁Death	-7800
▁Eagle	-7801
▁Eaton	-7802
▁Guide	-7803
▁Khand	-7804
▁Minor	-7805
▁consc	-7806
▁latex	-7807
▁layer	-7808
▁merch	-7809
▁paras	-7810
▁ready	-7811
▁relie	-7812
ilation	-7813
western	-7814
▁Branch	-7815
▁Having	-7816
▁Intern	-7817
▁Silver	-7818
▁Wilson	-7819
▁Yugosl	-7820
▁cancer	-7821
▁carved	-7822
▁causes	-7823
▁citing	-7824
▁eleven	-7825
▁resign	-7826
▁shells	-7827
▁unlike	-7828
▁Kannada	-7829
▁Swedish	-7830
▁burning	-7831
▁climate	-7832
▁mixture	-7833
▁operate	-7834
▁survive	-7835
urricanes	-7836
▁Historic	-7837
▁Ministry	-7838
▁behavior	-7839
▁disaster	-7840
▁festival	-7841
▁generals	-7842
▁memorial	-7843
▁overseas	-7844
▁predomin	-7845
▁thousand	-7846
ekāntavāda	-7847
▁departure	-7848
▁movements	-7849
▁partially	-7850
▁starlings	-7851
▁victories	-7852
▁impossible	-7853
▁resistance	-7854
▁institution	-7855
▁instruments	-7856
▁substantial	-7857
▁transportation	-7858
EC	-7859
Hg	-7860
de	-7861
ASA	-7862
cru	-7863
err	-7864
gov	-7865
pan	-7866
put	-7867
▁Az	-7868
▁Ra	-7869
onto	-7870
pson	-7871
urst	-7872
▁113	-7873
▁178	-7874
▁Már	-7875
▁Sup	-7876
▁eat	-7877
▁tex	-7878
inery	-7879
obile	-7880
piece	-7881
▁1860	-7882
▁1933	-7883
▁Budd	-7884
▁Celt	-7885
▁Glad	-7886
▁Howe	-7887
▁Last	-7888
▁Sans	-7889
▁Soon	-7890
▁copy	-7891
▁heat	-7892
▁mamm	-7893
▁safe	-7894
▁tack	-7895
▁turb	-7896
▁wasn	-7897
encing	-7898
weight	-7899
▁Midge	-7900
▁Yanke	-7901
▁advis	-7902
▁autom	-7903
▁looks	-7904
▁marry	-7905
▁nickn	-7906
▁recur	-7907
▁rooms	-7908
▁spend	-7909
▁subst	-7910
▁Bureau	-7911
▁Police	-7912
▁Season	-7913
▁commem	-7914
▁models	-7915
▁spores	-7916
▁Gilbert	-7917
▁Masters	-7918
▁Márquez	-7919
▁Perfect	-7920
▁Simpson	-7921
▁Stewart	-7922
▁amateur	-7923
▁bearing	-7924
▁compete	-7925
▁congreg	-7926
▁listing	-7927
▁temples	-7928
▁tribute	-7929
▁windows	-7930
▁Khandoba	-7931
▁Veronica	-7932
▁instance	-7933
▁musician	-7934
▁resigned	-7935
▁restored	-7936
▁squadron	-7937
▁struggle	-7938
▁thinking	-7939
▁beautiful	-7940
▁dangerous	-7941
▁documents	-7942
▁engineers	-7943
▁premiered	-7944
▁sequences	-7945
▁spiritual	-7946
▁afterwards	-7947
▁electronic	-7948
▁supporters	-7949
▁techniques	-7950
▁interaction	-7951
▁interesting	-7952
▁establishing	-7953
▁opportunities	-7954
ti	-7955
za	-7956
oma	-7957
opl	-7958
▁Ba	-7959
▁Jr	-7960
▁ty	-7961
LIMO	-7962
apse	-7963
mate	-7964
roit	-7965
udes	-7966
umin	-7967
▁123	-7968
▁165	-7969
▁Bah	-7970
▁Cob	-7971
▁Dak	-7972
▁FRE	-7973
▁Ira	-7974
▁McL	-7975
▁Pur	-7976
▁Vul	-7977
▁Wag	-7978
▁els	-7979
isler	-7980
omura	-7981
uable	-7982
▁1957	-7983
▁Fall	-7984
▁Then	-7985
▁bord	-7986
▁inHg	-7987
▁mode	-7988
▁myst	-7989
▁pale	-7990
▁poll	-7991
▁sale	-7992
▁toll	-7993
▁vast	-7994
▁Girls	-7995
▁coins	-7996
▁prove	-7997
▁recru	-7998
ologies	-7999
ulating	-8000
▁Miller	-8001
▁Mulder	-8002
▁Wright	-8003
▁attrib	-8004
▁consol	-8005
▁desert	-8006
▁helmet	-8007
▁storms	-8008
▁vessel	-8009
▁weapon	-8010
▁Detroit	-8011
▁FRELIMO	-8012
▁Jurchen	-8013
▁Justice	-8014
▁Phoenix	-8015
▁Toronto	-8016
▁achieve	-8017
▁artwork	-8018
▁designs	-8019
▁forcing	-8020
▁minimum	-8021
▁notably	-8022
▁offices	-8023
▁readers	-8024
▁reprodu	-8025
niowiecki	-8026
▁Saturday	-8027
▁criminal	-8028
▁neighbor	-8029
▁regiment	-8030
▁remember	-8031
▁situated	-8032
▁acknowled	-8033
▁adventure	-8034
▁elsewhere	-8035
▁Mozambique	-8036
▁artificial	-8037
▁properties	-8038
▁recognised	-8039
▁retirement	-8040
▁experiences	-8041
▁conservation	-8042
zo	-8043
asm	-8044
lyn	-8045
mit	-8046
phy	-8047
uls	-8048
▁CP	-8049
▁Ky	-8050
▁PC	-8051
arte	-8052
book	-8053
rees	-8054
wick	-8055
▁Ara	-8056
▁Cas	-8057
▁Esh	-8058
▁Imp	-8059
▁Pot	-8060
▁Ren	-8061
▁bod	-8062
▁enh	-8063
▁rib	-8064
▁sad	-8065
chell	-8066
oyage	-8067
yline	-8068
▁1850	-8069
▁Gray	-8070
▁Such	-8071
▁Vice	-8072
▁alle	-8073
▁bell	-8074
▁fant	-8075
▁frig	-8076
▁horn	-8077
▁sons	-8078
▁sung	-8079
▁surg	-8080
▁tiss	-8081
▁Barry	-8082
▁Bulls	-8083
▁Canal	-8084
▁Kevin	-8085
▁antic	-8086
▁	-8087
e	-8088
t	-8089
a	-8090
n	-8091
i	-8092
o	-8093
r	-8094
s	-8095
h	-8096
l	-8097
d	-8098
c	-8099
u	-8100
m	-8101
f	-8102
g	-8103
p	-8104
w	-8105
y	-8106
b	-8107
,	-8108
.	-8109
v	-8110
k	-8111
@	-8112
1	-8113
T	-8114
0	-8115
A	-8116
S	-8117
=	-8118
"	-8119
C	-8120
M	-8121
2	-8122
I	-8123
B	-8124
9	-8125
'	-8126
-	-8127
H	-8128
P	-8129
x	-8130
R	-8131
D	-8132
F	-8133
N	-8134
W	-8135
L	-8136
)	-8137
(	-8138
G	-8139
3	-8140
5	-8141
8	-8142
J	-8143
E	-8144
O	-8145
4	-8146
6	-8147
7	-8148
z	-8149
j	-8150
K	-8151
q	-8152
U	-8153
V	-8154
;	-8155
–	-8156
:	-8157
Y	-8158
Z	-8159
/	-8160
—	-8161
é	-8162
Q	-8163
%	-8164
$	-8165
[	-8166
]	-8167
X	-8168
&	-8169
!	-8170
á	-8171
ā	-8172
í	-8173
’	-8174
£	-8175
°	-8176
ó	-8177
?	-8178
+	-8179
è	-8180
ō	-8181
ü	-8182
